{
  "version": "1.0",
  "truncation": null,
  "padding": null,
  "added_tokens": [
    {
      "id": 0,
      "content": "<|endoftext|>",
      "single_word": false,
      "lstrip": false,
      "rstrip": false,
      "normalized": false,
      "special": true
    },
    {
      "id": 1,
      "content": "<|im_start|>",
      "single_word": false,
      "lstrip": false,
      "rstrip": false,
      "normalized": false,
      "special": true
    },
    {
      "id": 2,
      "content": "<|im_end|>",
      "single_word": false,
      "lstrip": false,
      "rstrip": false,
      "normalized": false,
      "special": true
    }
  ],
  "normalizer": null,
  "pre_tokenizer": {
    "type": "ByteLevel",
    "add_prefix_space": false,
    "trim_offsets": true,
    "use_regex": true
  },
  "post_processor": {
    "type": "ByteLevel",
    "add_prefix_space": true,
    "trim_offsets": false,
    "use_regex": true
  },
  "decoder": {
    "type": "ByteLevel",
    "add_prefix_space": true,
    "trim_offsets": true,
    "use_regex": true
  },
  "model": {
    "type": "BPE",
    "dropout": null,
    "unk_token": null,
    "continuing_subword_prefix": null,
    "end_of_word_suffix": null,
    "fuse_unk": false,
    "byte_fallback": false,
    "ignore_merges": false,
    "vocab": {
      "<|endoftext|>": 0,
      "<|im_start|>": 1,
      "<|im_end|>": 2,
      "!": 3,
      "\"": 4,
      "#": 5,
      "$": 6,
      "%": 7,
      "&": 8,
      "'": 9,
      "(": 10,
      ")": 11,
      "*": 12,
      "+": 13,
      ",": 14,
      "-": 15,
      ".": 16,
      "/": 17,
      "0": 18,
      "1": 19,
      "2": 20,
      "3": 21,
      "4": 22,
      "5": 23,
      "6": 24,
      "7": 25,
      "8": 26,
      "9": 27,
      ":": 28,
      ";": 29,
      "<": 30,
      "=": 31,
      ">": 32,
      "?": 33,
      "@": 34,
      "A": 35,
      "B": 36,
      "C": 37,
      "D": 38,
      "E": 39,
      "F": 40,
      "G": 41,
      "H": 42,
      "I": 43,
      "J": 44,
      "K": 45,
      "L": 46,
      "M": 47,
      "N": 48,
      "O": 49,
      "P": 50,
      "Q": 51,
      "R": 52,
      "S": 53,
      "T": 54,
      "U": 55,
      "V": 56,
      "W": 57,
      "X": 58,
      "Y": 59,
      "Z": 60,
      "[": 61,
      "\\": 62,
      "]": 63,
      "^": 64,
      "_": 65,
      "`": 66,
      "a": 67,
      "b": 68,
      "c": 69,
      "d": 70,
      "e": 71,
      "f": 72,
      "g": 73,
      "h": 74,
      "i": 75,
      "j": 76,
      "k": 77,
      "l": 78,
      "m": 79,
      "n": 80,
      "o": 81,
      "p": 82,
      "q": 83,
      "r": 84,
      "s": 85,
      "t": 86,
      "u": 87,
      "v": 88,
      "w": 89,
      "x": 90,
      "y": 91,
      "z": 92,
      "{": 93,
      "|": 94,
      "}": 95,
      "~": 96,
      "¡": 97,
      "¢": 98,
      "£": 99,
      "¤": 100,
      "¥": 101,
      "¦": 102,
      "§": 103,
      "¨": 104,
      "©": 105,
      "ª": 106,
      "«": 107,
      "¬": 108,
      "®": 109,
      "¯": 110,
      "°": 111,
      "±": 112,
      "²": 113,
      "³": 114,
      "´": 115,
      "µ": 116,
      "¶": 117,
      "·": 118,
      "¸": 119,
      "¹": 120,
      "º": 121,
      "»": 122,
      "¼": 123,
      "½": 124,
      "¾": 125,
      "¿": 126,
      "À": 127,
      "Á": 128,
      "Â": 129,
      "Ã": 130,
      "Ä": 131,
      "Å": 132,
      "Æ": 133,
      "Ç": 134,
      "È": 135,
      "É": 136,
      "Ê": 137,
      "Ë": 138,
      "Ì": 139,
      "Í": 140,
      "Î": 141,
      "Ï": 142,
      "Ð": 143,
      "Ñ": 144,
      "Ò": 145,
      "Ó": 146,
      "Ô": 147,
      "Õ": 148,
      "Ö": 149,
      "×": 150,
      "Ø": 151,
      "Ù": 152,
      "Ú": 153,
      "Û": 154,
      "Ü": 155,
      "Ý": 156,
      "Þ": 157,
      "ß": 158,
      "à": 159,
      "á": 160,
      "â": 161,
      "ã": 162,
      "ä": 163,
      "å": 164,
      "æ": 165,
      "ç": 166,
      "è": 167,
      "é": 168,
      "ê": 169,
      "ë": 170,
      "ì": 171,
      "í": 172,
      "î": 173,
      "ï": 174,
      "ð": 175,
      "ñ": 176,
      "ò": 177,
      "ó": 178,
      "ô": 179,
      "õ": 180,
      "ö": 181,
      "÷": 182,
      "ø": 183,
      "ù": 184,
      "ú": 185,
      "û": 186,
      "ü": 187,
      "ý": 188,
      "þ": 189,
      "ÿ": 190,
      "Ā": 191,
      "ā": 192,
      "Ă": 193,
      "ă": 194,
      "Ą": 195,
      "ą": 196,
      "Ć": 197,
      "ć": 198,
      "Ĉ": 199,
      "ĉ": 200,
      "Ċ": 201,
      "ċ": 202,
      "Č": 203,
      "č": 204,
      "Ď": 205,
      "ď": 206,
      "Đ": 207,
      "đ": 208,
      "Ē": 209,
      "ē": 210,
      "Ĕ": 211,
      "ĕ": 212,
      "Ė": 213,
      "ė": 214,
      "Ę": 215,
      "ę": 216,
      "Ě": 217,
      "ě": 218,
      "Ĝ": 219,
      "ĝ": 220,
      "Ğ": 221,
      "ğ": 222,
      "Ġ": 223,
      "ġ": 224,
      "Ģ": 225,
      "ģ": 226,
      "Ĥ": 227,
      "ĥ": 228,
      "Ħ": 229,
      "ħ": 230,
      "Ĩ": 231,
      "ĩ": 232,
      "Ī": 233,
      "ī": 234,
      "Ĭ": 235,
      "ĭ": 236,
      "Į": 237,
      "į": 238,
      "İ": 239,
      "ı": 240,
      "Ĳ": 241,
      "ĳ": 242,
      "Ĵ": 243,
      "ĵ": 244,
      "Ķ": 245,
      "ķ": 246,
      "ĸ": 247,
      "Ĺ": 248,
      "ĺ": 249,
      "Ļ": 250,
      "ļ": 251,
      "Ľ": 252,
      "ľ": 253,
      "Ŀ": 254,
      "ŀ": 255,
      "Ł": 256,
      "ł": 257,
      "Ń": 258,
      "Ġt": 259,
      "he": 260,
      "Ġa": 261,
      "Ġs": 262,
      "Ġthe": 263,
      "Ġw": 264,
      "nd": 265,
      "ed": 266,
      "Ġb": 267,
      "Ġand": 268,
      "Ġto": 269,
      "in": 270,
      "Ġh": 271,
      "it": 272,
      "Ġhe": 273,
      "Ġwa": 274,
      "re": 275,
      "Ġl": 276,
      "Ġf": 277,
      "ou": 278,
      "Ġm": 279,
      "on": 280,
      "Ġc": 281,
      "Ġd": 282,
      "er": 283,
      "Ġp": 284,
      "Ġwas": 285,
      "Ġsa": 286,
      "om": 287,
      "is": 288,
      "ing": 289,
      "ar": 290,
      "Ġg": 291,
      "il": 292,
      "Ġshe": 293,
      "id": 294,
      "ay": 295,
      "Ġit": 296,
      "at": 297,
      "Ġn": 298,
      "en": 299,
      "Ġha": 300,
      "an": 301,
      "Ġthey": 302,
      "or": 303,
      "im": 304,
      "Ġth": 305,
      "Ġo": 306,
      "le": 307,
      "ll": 308,
      "Ġher": 309,
      "ot": 310,
      "ir": 311,
      "et": 312,
      "Ġy": 313,
      "es": 314,
      "Ġe": 315,
      "Ġin": 316,
      "ver": 317,
      "ow": 318,
      "ut": 319,
      "Ġon": 320,
      "ck": 321,
      "Ġyou": 322,
      "Ġu": 323,
      "ld": 324,
      "oo": 325,
      "Ġsaid": 326,
      "Ġr": 327,
      "Ġbe": 328,
      "ig": 329,
      "Ġ\"": 330,
      "ily": 331,
      "Ġst": 332,
      "ke": 333,
      "ce": 334,
      "ve": 335,
      "pp": 336,
      "ith": 337,
      "Ġwith": 338,
      "Ġso": 339,
      "Ġtim": 340,
      "Ġhis": 341,
      "Ġof": 342,
      "ked": 343,
      "am": 344,
      "ri": 345,
      "nt": 346,
      "Ġpl": 347,
      "ad": 348,
      "the": 349,
      "Ġmom": 350,
      "very": 351,
      "Ġthat": 352,
      "Ġday": 353,
      "Ġwe": 354,
      "st": 355,
      "Ġup": 356,
      "Ġplay": 357,
      "Ġhad": 358,
      "Ġbut": 359,
      "Ġlily": 360,
      "Ġj": 361,
      "Ġfor": 362,
      "un": 363,
      "el": 364,
      "ould": 365,
      "my": 366,
      "'s": 367,
      "Ġli": 368,
      "ch": 369,
      "ent": 370,
      "Ġhapp": 371,
      "Ġi": 372,
      "Ġdo": 373,
      "Ġwant": 374,
      "Ġsh": 375,
      "itt": 376,
      "Ġan": 377,
      "out": 378,
      "ra": 379,
      "Ġwh": 380,
      "end": 381,
      "Ġnot": 382,
      "se": 383,
      "ly": 384,
      "Ġk": 385,
      "ome": 386,
      "Ġvery": 387,
      "Ġthere": 388,
      "ound": 389,
      "Ġba": 390,
      "ittle": 391,
      "Ġlittle": 392,
      "Ġne": 393,
      "Ġtime": 394,
      "al": 395,
      "ĠĊ": 396,
      "ht": 397,
      "Ġre": 398,
      "Ġas": 399,
      "Ġsm": 400,
      "Ġis": 401,
      "Ġhappy": 402,
      "Ġbig": 403,
      "one": 404,
      "Ġma": 405,
      "Ġsaw": 406,
      "riend": 407,
      "Ġfriend": 408,
      ".\"": 409,
      "ry": 410,
      "ide": 411,
      "Ġbo": 412,
      "'t": 413,
      "Ġloo": 414,
      "ug": 415,
      "!\"": 416,
      "ter": 417,
      "ved": 418,
      "her": 419,
      "Ġwere": 420,
      "Ġlo": 421,
      "ore": 422,
      "once": 423,
      "Ġse": 424,
      "Ġgo": 425,
      "Ġsp": 426,
      "Ġtoo": 427,
      "Ġhim": 428,
      "Ġone": 429,
      "Ġca": 430,
      "Ġare": 431,
      "ec": 432,
      "irl": 433,
      "ard": 434,
      "Ġwanted": 435,
      "ill": 436,
      "Ġgirl": 437,
      "Ġupon": 438,
      "Ġout": 439,
      "Ġthem": 440,
      "Ġat": 441,
      "Ġtheir": 442,
      "ys": 443,
      "Ġfr": 444,
      "ur": 445,
      "fu": 446,
      "way": 447,
      "ind": 448,
      "Ġdid": 449,
      "Ġsmil": 450,
      "Ġcould": 451,
      "hen": 452,
      "Ġcan": 453,
      "Ġhave": 454,
      "art": 455,
      "ain": 456,
      "Ġex": 457,
      "hed": 458,
      "Ġben": 459,
      "Ġall": 460,
      "Ġar": 461,
      "Ġwent": 462,
      "lp": 463,
      "ic": 464,
      "Ġta": 465,
      "ful": 466,
      "ood": 467,
      "?\"": 468,
      "Ġfriends": 469,
      "hing": 470,
      "Ġhelp": 471,
      "Ġnam": 472,
      "ight": 473,
      "Ġkn": 474,
      "um": 475,
      "Ġtom": 476,
      "ark": 477,
      "Ġback": 478,
      "Ġcl": 479,
      "Ġle": 480,
      "Ġno": 481,
      "Ġfun": 482,
      "all": 483,
      "Ġal": 484,
      "Ġsc": 485,
      "Ġro": 486,
      "Ġsmiled": 487,
      "Ġnamed": 488,
      "oug": 489,
      "Ġfrom": 490,
      "Ġloved": 491,
      "side": 492,
      "Ġevery": 493,
      "Ġman": 494,
      "elt": 495,
      "Ġasked": 496,
      "Ġsome": 497,
      "ick": 498,
      "Ġlike": 499,
      "op": 500,
      "Ġfe": 501,
      "Ġthen": 502,
      "Ġfelt": 503,
      "Ġsee": 504,
      "Ġme": 505,
      "Ġlooked": 506,
      "Ġbr": 507,
      "Ġaround": 508,
      "Ġwhen": 509,
      "ame": 510,
      "omet": 511,
      "Ġwhat": 512,
      "Ġbir": 513,
      "ure": 514,
      "Ġtimmy": 515,
      "Ġwould": 516,
      "get": 517,
      "as": 518,
      "Ġsomet": 519,
      "Ġstart": 520,
      "ong": 521,
      "Ġboy": 522,
      "Ã¢": 523,
      "âĤ": 524,
      "âĤ¬": 525,
      "Ġfa": 526,
      "Ġbird": 527,
      "Ġpr": 528,
      "dd": 529,
      "ings": 530,
      "Ġwor": 531,
      "Ġag": 532,
      "Ġmake": 533,
      "ade": 534,
      "king": 535,
      "ie": 536,
      ",\"": 537,
      "own": 538,
      "lily": 539,
      "Ġtre": 540,
      "Ġran": 541,
      "gether": 542,
      "Ġaway": 543,
      "ared": 544,
      "Ġtogether": 545,
      "Ġsays": 546,
      "Ġstarted": 547,
      "ice": 548,
      "Ġla": 549,
      "oud": 550,
      "Ġcar": 551,
      "Ġsomething": 552,
      "Ġmade": 553,
      "Ġdad": 554,
      "Ġfl": 555,
      "Ġco": 556,
      "ther": 557,
      "ited": 558,
      "Ġpark": 559,
      "th": 560,
      "Ġsad": 561,
      "ack": 562,
      "Ġother": 563,
      "Ġnew": 564,
      "Ġput": 565,
      "Ġexc": 566,
      "Ġch": 567,
      "Ġsu": 568,
      "Ġhug": 569,
      "ble": 570,
      "Ġmu": 571,
      "Ġagain": 572,
      "ss": 573,
      "Ġgood": 574,
      "ep": 575,
      "Ġhome": 576,
      "Ġwho": 577,
      "Ġmommy": 578,
      "ook": 579,
      "Ġwal": 580,
      "Ġfound": 581,
      "ried": 582,
      "est": 583,
      "Ġjo": 584,
      "pped": 585,
      "Ġdec": 586,
      "qu": 587,
      "Ġget": 588,
      "ach": 589,
      "Ġplaying": 590,
      "ought": 591,
      "pl": 592,
      "na": 593,
      "Ġsw": 594,
      "ous": 595,
      "Ġthings": 596,
      "Ġexcited": 597,
      "Ġbl": 598,
      "Ġgra": 599,
      "Ġliked": 600,
      "Ġgot": 601,
      "uck": 602,
      "ge": 603,
      "ny": 604,
      "Ġthan": 605,
      "Ġyour": 606,
      "ided": 607,
      "Ġdecided": 608,
      "Ġcame": 609,
      "ist": 610,
      "ust": 611,
      "Ġv": 612,
      "Ġdog": 613,
      "Ġscared": 614,
      "ell": 615,
      "Ġdown": 616,
      "Ġfind": 617,
      "ouse": 618,
      "Ġab": 619,
      "Ġsam": 620,
      "fe": 621,
      "Ġcare": 622,
      "Ġbec": 623,
      "Ġfeel": 624,
      "Ġmy": 625,
      "Ġlook": 626,
      "Ġgr": 627,
      "Ġwill": 628,
      "our": 629,
      "Ġpo": 630,
      "ant": 631,
      "Ġke": 632,
      "they": 633,
      "ma": 634,
      "Ġbu": 635,
      "ave": 636,
      "arn": 637,
      "nder": 638,
      "ally": 639,
      "ways": 640,
      "ess": 641,
      "Ġdidn": 642,
      "Ġalways": 643,
      "Ġabout": 644,
      "Ġtook": 645,
      "yes": 646,
      "Ġlot": 647,
      "are": 648,
      "Ġtoys": 649,
      "Ġkne": 650,
      "ers": 651,
      "ged": 652,
      "ise": 653,
      "bb": 654,
      "Ġoutside": 655,
      "ite": 656,
      "Ġtree": 657,
      "Ġthought": 658,
      "Ġball": 659,
      "Ġho": 660,
      "Ġmore": 661,
      "eci": 662,
      "ened": 663,
      "ched": 664,
      "to": 665,
      "Ġold": 666,
      "Ġlearn": 667,
      "Ġthis": 668,
      "ret": 669,
      "Ġpu": 670,
      "Ġmo": 671,
      "Ġknow": 672,
      "Ġhow": 673,
      "Ġtw": 674,
      "Ġcat": 675,
      "Ġsor": 676,
      "Ġtake": 677,
      "Ġlaug": 678,
      "ro": 679,
      "Ġspeci": 680,
      "Ġspecial": 681,
      "Ġpe": 682,
      "Ġlet": 683,
      "dden": 684,
      "Ġknew": 685,
      "Ġmax": 686,
      "ive": 687,
      "Ġinside": 688,
      "Ġany": 689,
      "ia": 690,
      "ddenly": 691,
      "fter": 692,
      "Ġtoy": 693,
      "ap": 694,
      "so": 695,
      "Ġshow": 696,
      "Ġtr": 697,
      "ink": 698,
      "Ġsorry": 699,
      "but": 700,
      "Ġmuch": 701,
      "Ġsl": 702,
      "Ġrun": 703,
      "ish": 704,
      "Ġor": 705,
      "Ġhand": 706,
      "Ġif": 707,
      "au": 708,
      "tom": 709,
      "Ġhouse": 710,
      "ven": 711,
      "Ġsun": 712,
      "Ġop": 713,
      "Ġsk": 714,
      "lly": 715,
      "Ġclo": 716,
      "Ġjust": 717,
      "by": 718,
      "Ġqu": 719,
      "Ġinto": 720,
      "Ġtried": 721,
      "Ġwater": 722,
      "Ġen": 723,
      "ate": 724,
      "Ġra": 725,
      "Ġtold": 726,
      "ft": 727,
      "Ġproud": 728,
      "Ġeach": 729,
      "ump": 730,
      "Ġover": 731,
      "Ġcouldn": 732,
      "Ġgave": 733,
      "Ġheard": 734,
      "dy": 735,
      "Ġnever": 736,
      "Ġsara": 737,
      "here": 738,
      "Ġroom": 739,
      "Ġeat": 740,
      "ty": 741,
      "Ġexpl": 742,
      "other": 743,
      "Ġpick": 744,
      "ue": 745,
      "Ġpret": 746,
      "lled": 747,
      "Ġanna": 748,
      "ause": 749,
      "ion": 750,
      "mom": 751,
      "Ġplayed": 752,
      "Ġgre": 753,
      "sed": 754,
      "Ġhugged": 755,
      "Ġwat": 756,
      "jo": 757,
      "Ġoff": 758,
      "Ġbear": 759,
      "Ġcom": 760,
      "oth": 761,
      "Ġnice": 762,
      "Ġbox": 763,
      "Ġneed": 764,
      "Ġbecause": 765,
      "Ġfo": 766,
      "'m": 767,
      "Ġstr": 768,
      "Ġmany": 769,
      "ile": 770,
      "Ġbet": 771,
      "wh": 772,
      "Ġjack": 773,
      "Ġdon": 774,
      "Ġsmall": 775,
      "ving": 776,
      "Ġlong": 777,
      "kes": 778,
      "ine": 779,
      "gry": 780,
      "imal": 781,
      "Ġanimal": 782,
      "ct": 783,
      "ank": 784,
      "ort": 785,
      "Ġend": 786,
      "Ġtry": 787,
      "ough": 788,
      "Ġunt": 789,
      "cy": 790,
      "Ġnow": 791,
      "Ġcome": 792,
      "ild": 793,
      "iz": 794,
      "Ġuntil": 795,
      "urt": 796,
      "Ġeven": 797,
      "elf": 798,
      "Ġcle": 799,
      "Ġim": 800,
      "Ġkind": 801,
      "Ġlove": 802,
      "Ġlearned": 803,
      "Ġbea": 804,
      "Ġbetter": 805,
      "Ġflow": 806,
      "Ġad": 807,
      "let": 808,
      "Ġbest": 809,
      "vent": 810,
      "Ġfin": 811,
      "ady": 812,
      "urp": 813,
      "ars": 814,
      "Ġsay": 815,
      "Ġeveryone": 816,
      "urn": 817,
      "ream": 818,
      "Ġte": 819,
      "ace": 820,
      "Ġcol": 821,
      "Ġmia": 822,
      "pt": 823,
      "ves": 824,
      "Ġcu": 825,
      "be": 826,
      "Åĵ": 827,
      "Ġby": 828,
      "arden": 829,
      "Ġgarden": 830,
      "Ġfast": 831,
      "Ġfi": 832,
      "ber": 833,
      "Ġcareful": 834,
      "Ġbeaut": 835,
      "Ġche": 836,
      "Ġafter": 837,
      "Ġbra": 838,
      "ies": 839,
      "Ġthanked": 840,
      "Ġsky": 841,
      "Ġlaughed": 842,
      "Ġjump": 843,
      "Ġgl": 844,
      "Ġspot": 845,
      "Ġsoon": 846,
      "Ġloud": 847,
      "Ġsn": 848,
      "iny": 849,
      "and": 850,
      "em": 851,
      "Ġlist": 852,
      "wn": 853,
      "Ġhard": 854,
      "Ġbeauti": 855,
      "Ġwo": 856,
      "lew": 857,
      "Ġlots": 858,
      "Ġbeautiful": 859,
      "self": 860,
      "Ġstill": 861,
      "Ġunder": 862,
      "Ġanimals": 863,
      "Ġfam": 864,
      "ĠÃ¢": 865,
      "hn": 866,
      "Ġhurt": 867,
      "Ġstay": 868,
      "tim": 869,
      "if": 870,
      "ning": 871,
      "sh": 872,
      "Ġboth": 873,
      "you": 874,
      "Ġway": 875,
      "Ġsafe": 876,
      "hes": 877,
      "Ġtwo": 878,
      "ool": 879,
      "Ġdan": 880,
      "ase": 881,
      "Ġrem": 882,
      "Ġbad": 883,
      "ree": 884,
      "Ġits": 885,
      "Ġbook": 886,
      "Ġred": 887,
      "Ġimp": 888,
      "kay": 889,
      "ane": 890,
      "ople": 891,
      "Ġlived": 892,
      "Ġpeople": 893,
      "ucy": 894,
      "Ġsuddenly": 895,
      "Ġwalked": 896,
      "Ġbrave": 897,
      "Ġshould": 898,
      "urpr": 899,
      "ock": 900,
      "Ġsurpr": 901,
      "ished": 902,
      "Ġangry": 903,
      "ip": 904,
      "Ġfamily": 905,
      "ress": 906,
      "when": 907,
      "igh": 908,
      "Ġclean": 909,
      "Ġflew": 910,
      "no": 911,
      "Ġcalled": 912,
      "Ġstor": 913,
      "led": 914,
      "Ġkept": 915,
      "Ġfore": 916,
      "fore": 917,
      "ger": 918,
      "Ġshare": 919,
      "su": 920,
      "Ġfly": 921,
      "xt": 922,
      "ised": 923,
      "dded": 924,
      "Ġpic": 925,
      "Ġgoing": 926,
      "âĤ¬â": 927,
      "Ġdoor": 928,
      "Ġkeep": 929,
      "Ġbefore": 930,
      "Ġrock": 931,
      "Ġpretty": 932,
      "Ġdra": 933,
      "Ġadvent": 934,
      "ary": 935,
      "ummy": 936,
      "Ġnoise": 937,
      "what": 938,
      "Ġfar": 939,
      "Ġshiny": 940,
      "Ġopened": 941,
      "Ġcon": 942,
      "Ġwind": 943,
      "Ġdoll": 944,
      "Ġcry": 945,
      "Ġexplore": 946,
      "Ġide": 947,
      "ben": 948,
      "ied": 949,
      "ect": 950,
      "Ġreal": 951,
      "illy": 952,
      "Ġsto": 953,
      "Ġwhile": 954,
      "Ġturn": 955,
      "Ġun": 956,
      "Ġground": 957,
      "les": 958,
      "Ġalso": 959,
      "Ġnext": 960,
      "Ħ¢": 961,
      "âĤ¬âĦ¢": 962,
      "that": 963,
      "Ġidea": 964,
      "we": 965,
      "Ġnodded": 966,
      "Ġcolor": 967,
      "Ġwar": 968,
      "ser": 969,
      "Ġgive": 970,
      "Ġfeeling": 971,
      "ara": 972,
      "Ġpicked": 973,
      "imb": 974,
      "thing": 975,
      "Ġwalking": 976,
      "Ġlucy": 977,
      "Ġblue": 978,
      "Ġclimb": 979,
      "Ġhas": 980,
      "Ġthr": 981,
      "bo": 982,
      "thank": 983,
      "Ġbed": 984,
      "Ġadventure": 985,
      "Ġsmile": 986,
      "Ġgrand": 987,
      "Ġbeing": 988,
      "ak": 989,
      "aybe": 990,
      "iced": 991,
      "ious": 992,
      "Ġdif": 993,
      "Ġwr": 994,
      "ture": 995,
      "joy": 996,
      "eet": 997,
      "Ġfood": 998,
      "Ġthink": 999,
      "Ġpicture": 1000,
      "Ġwait": 1001,
      "Ġlooking": 1002,
      "she": 1003,
      "Ġdel": 1004,
      "Ġlisten": 1005,
      "Ġtra": 1006,
      "Ġtruck": 1007,
      "ff": 1008,
      "ught": 1009,
      "Ġtow": 1010,
      "Ġbro": 1011,
      "Ġeyes": 1012,
      "Ġstopped": 1013,
      "Ġrepl": 1014,
      "Ġgi": 1015,
      "Ġbre": 1016,
      "ting": 1017,
      "Ġvo": 1018,
      "Ġremem": 1019,
      "Ġown": 1020,
      "Ġwalk": 1021,
      "bye": 1022,
      "Ġgreat": 1023,
      "Ġwonder": 1024,
      "Ġenjoy": 1025,
      "Ġnear": 1026,
      "Ġhands": 1027,
      "Ġru": 1028,
      "suddenly": 1029,
      "Ġever": 1030,
      "Ġshout": 1031,
      "Ġde": 1032,
      "Ġhead": 1033,
      "Ġimport": 1034,
      "og": 1035,
      "Ġflowers": 1036,
      "Ġquick": 1037,
      "Ġforest": 1038,
      "Ġnoticed": 1039,
      "bbit": 1040,
      "Ġapp": 1041,
      "Ġremember": 1042,
      "ized": 1043,
      "Ġdis": 1044,
      "irst": 1045,
      "Ġwhere": 1046,
      "ted": 1047,
      "Ġrabbit": 1048,
      "Ġfish": 1049,
      "llow": 1050,
      "Ġwatch": 1051,
      "ac": 1052,
      "Ġimportant": 1053,
      "Ġz": 1054,
      "Ġtal": 1055,
      "Ġsound": 1056,
      "Ġama": 1057,
      "Ġac": 1058,
      "Ġrain": 1059,
      "Ġslide": 1060,
      "Ġwork": 1061,
      "Ġreplied": 1062,
      "Ġokay": 1063,
      "Ġamaz": 1064,
      "lease": 1065,
      "day": 1066,
      "Ġshowed": 1067,
      "Ġsqu": 1068,
      "Ġtou": 1069,
      "gan": 1070,
      "age": 1071,
      "Ġfollow": 1072,
      "Ġmean": 1073,
      "fere": 1074,
      "Ġright": 1075,
      "Ġask": 1076,
      "Ġbun": 1077,
      "bbed": 1078,
      "Ġdiffere": 1079,
      "Ġam": 1080,
      "Ġye": 1081,
      "Ġbright": 1082,
      "Ġthank": 1083,
      "Ġwatched": 1084,
      "Ġda": 1085,
      "Ġstrong": 1086,
      "ila": 1087,
      "Ġem": 1088,
      "anna": 1089,
      "Ġuse": 1090,
      "Ġstick": 1091,
      "Ġour": 1092,
      "Ġus": 1093,
      "Ġmor": 1094,
      "Ġhere": 1095,
      "Ġhop": 1096,
      "Ġsure": 1097,
      "Ġbeen": 1098,
      "Ġquickly": 1099,
      "Ġvoice": 1100,
      "Ġmag": 1101,
      "ered": 1102,
      "ath": 1103,
      "Ġyell": 1104,
      "Ġcuri": 1105,
      "Ġgoodbye": 1106,
      "Ġmum": 1107,
      "Ġdifferent": 1108,
      "Ġchild": 1109,
      "Ġboat": 1110,
      "can": 1111,
      "llo": 1112,
      "co": 1113,
      "Ġsue": 1114,
      "Ġbecame": 1115,
      "Ġplace": 1116,
      "Ġface": 1117,
      "ange": 1118,
      "look": 1119,
      "Ġhigh": 1120,
      "ng": 1121,
      "Ġdoes": 1122,
      "where": 1123,
      "Ġstore": 1124,
      "Ġcloser": 1125,
      "Ġwarm": 1126,
      "ass": 1127,
      "Ġdress": 1128,
      "sara": 1129,
      "Ġcurious": 1130,
      "Ġbel": 1131,
      "Ġflo": 1132,
      "Ġcook": 1133,
      "Ġfirst": 1134,
      "Ġtell": 1135,
      "Ġforg": 1136,
      "Ġwhy": 1137,
      "oon": 1138,
      "Ġfav": 1139,
      "Ġthree": 1140,
      "Ġsand": 1141,
      "ount": 1142,
      "Ġdaddy": 1143,
      "able": 1144,
      "leep": 1145,
      "Ġopen": 1146,
      "Ġnight": 1147,
      "ull": 1148,
      "Ġcake": 1149,
      "more": 1150,
      "Ġblock": 1151,
      "itc": 1152,
      "Ġanymore": 1153,
      "orn": 1154,
      "iss": 1155,
      "ag": 1156,
      "Ġbutter": 1157,
      "ached": 1158,
      "ired": 1159,
      "Ġlea": 1160,
      "Ġbunny": 1161,
      "Ġonly": 1162,
      "Ġsweet": 1163,
      "Ġmon": 1164,
      "Ġkid": 1165,
      "Ġpain": 1166,
      "Ġgrabbed": 1167,
      "Ġjohn": 1168,
      "Ġstop": 1169,
      "isy": 1170,
      "Ġfell": 1171,
      "Ġduck": 1172,
      "Ġcr": 1173,
      "Ġbirds": 1174,
      "Ġcont": 1175,
      "Ġbit": 1176,
      "itchen": 1177,
      "Ġkitchen": 1178,
      "Ġbob": 1179,
      "Ġjumped": 1180,
      "Ġfire": 1181,
      "Ġglad": 1182,
      "Ġper": 1183,
      "Ġhelped": 1184,
      "Ġsees": 1185,
      "Ġcra": 1186,
      "Ġgrandma": 1187,
      "Ġsarah": 1188,
      "Ġdr": 1189,
      "Ġpap": 1190,
      "Ġsing": 1191,
      "Ġhappened": 1192,
      "Ġgrass": 1193,
      "Ġfinally": 1194,
      "Ġprin": 1195,
      "air": 1196,
      "Ġtri": 1197,
      "Ġshouted": 1198,
      "Ġstory": 1199,
      "Ġbeh": 1200,
      "nts": 1201,
      "after": 1202,
      "Ġjane": 1203,
      "Ġbrother": 1204,
      "Ġyummy": 1205,
      "Ġreached": 1206,
      "Ġrealized": 1207,
      "Ġlady": 1208,
      "ast": 1209,
      "Ġhaving": 1210,
      "Ġplease": 1211,
      "ins": 1212,
      "Ġfavor": 1213,
      "'re": 1214,
      "Ġmess": 1215,
      "Ġrest": 1216,
      "Ġthrough": 1217,
      "ppy": 1218,
      "Ġfavorite": 1219,
      "Ġdraw": 1220,
      "Ġcre": 1221,
      "Ġhat": 1222,
      "Ġste": 1223,
      "Ġgame": 1224,
      "Ġsoft": 1225,
      "Ġate": 1226,
      "Ġless": 1227,
      "Ġunderst": 1228,
      "Ġready": 1229,
      "zy": 1230,
      "Ġpare": 1231,
      "Ġpet": 1232,
      "Ġthing": 1233,
      "Ġreally": 1234,
      "imes": 1235,
      "<|": 1236,
      "|>": 1237,
      "ather": 1238,
      "mommy": 1239,
      "Ġbegan": 1240,
      "Ġpretend": 1241,
      "Ġworld": 1242,
      "Ġmagic": 1243,
      "Ġjoe": 1244,
      "ken": 1245,
      "Ġlooks": 1246,
      "ster": 1247,
      "Ġhimself": 1248,
      "fully": 1249,
      "Ġbutterf": 1250,
      "Ġdone": 1251,
      "Ġmaking": 1252,
      "Ġcut": 1253,
      "Ġcoming": 1254,
      "Ġkids": 1255,
      "Ġmouse": 1256,
      "sp": 1257,
      "Ġpond": 1258,
      "Ġfloor": 1259,
      "Ġwaved": 1260,
      "Ġprom": 1261,
      "Ġtired": 1262,
      "Ġfix": 1263,
      "Ġworry": 1264,
      "Ġcars": 1265,
      "Ġpart": 1266,
      "ign": 1267,
      "Ġdelic": 1268,
      "Ġfill": 1269,
      "Ġname": 1270,
      "Ġflower": 1271,
      "ely": 1272,
      "ater": 1273,
      "wow": 1274,
      "Ġhair": 1275,
      "Ġtouch": 1276,
      "Ġmaybe": 1277,
      "Ġfunny": 1278,
      "Ġcatch": 1279,
      "Ġhold": 1280,
      "Ġused": 1281,
      "Ġanother": 1282,
      "Ġsometimes": 1283,
      "Ġseen": 1284,
      "Ġfarm": 1285,
      "Ġtast": 1286,
      "Ġtop": 1287,
      "rel": 1288,
      "ient": 1289,
      "Ġparents": 1290,
      "oney": 1291,
      "john": 1292,
      "Ġdoing": 1293,
      "Ġhopped": 1294,
      "Ġcried": 1295,
      "iver": 1296,
      "Ġgreen": 1297,
      "Ġblocks": 1298,
      "Ġcool": 1299,
      "Ġlight": 1300,
      "\".": 1301,
      "Ġsurprise": 1302,
      "Ġdin": 1303,
      "Ġted": 1304,
      "Ġlesson": 1305,
      "Ġfull": 1306,
      "ul": 1307,
      "Ġread": 1308,
      "timmy": 1309,
      "ation": 1310,
      "don": 1311,
      "Ġwood": 1312,
      "Ġdri": 1313,
      "Ġbehind": 1314,
      "ards": 1315,
      "Ġtrees": 1316,
      "Ġrunning": 1317,
      "Ġsnow": 1318,
      "Ġworked": 1319,
      "Ġwindow": 1320,
      "Ġfrog": 1321,
      "Ġdark": 1322,
      "Ġyears": 1323,
      "Ġdro": 1324,
      "Ġsat": 1325,
      "Ġbow": 1326,
      "Ġslow": 1327,
      "Ġ-": 1328,
      "Ġsmell": 1329,
      "Ġlikes": 1330,
      "Ġyellow": 1331,
      "Ġpaper": 1332,
      "Ġwished": 1333,
      "hello": 1334,
      "ued": 1335,
      "Ġswim": 1336,
      "Ġsleep": 1337,
      "Ġbag": 1338,
      "Ġhappily": 1339,
      "come": 1340,
      "Ġsho": 1341,
      "ren": 1342,
      "sam": 1343,
      "aring": 1344,
      "Ġsurprised": 1345,
      "Ġel": 1346,
      "Ġcarefully": 1347,
      "Ġbutterfly": 1348,
      "Ġset": 1349,
      "Ġswing": 1350,
      "fr": 1351,
      "Ġlost": 1352,
      "Ġcold": 1353,
      "Ġice": 1354,
      "Ġremembered": 1355,
      "Ġheld": 1356,
      "Ġbaby": 1357,
      "Ġhole": 1358,
      "rew": 1359,
      "Ġpat": 1360,
      "Ġlaugh": 1361,
      "Ġneeded": 1362,
      "Ġperf": 1363,
      "uff": 1364,
      "Ġbuy": 1365,
      "Ġmove": 1366,
      "ons": 1367,
      "Ġleft": 1368,
      "Ġteddy": 1369,
      "Ġanything": 1370,
      "Ġdream": 1371,
      "Ġfair": 1372,
      "cess": 1373,
      "reed": 1374,
      "ike": 1375,
      "Ġwrong": 1376,
      "Ġenjoyed": 1377,
      "Ġdaisy": 1378,
      "Ġhear": 1379,
      "Ġarri": 1380,
      "Ġair": 1381,
      "Ġfollowed": 1382,
      "Ġtable": 1383,
      "Ġchildren": 1384,
      "Ġbus": 1385,
      "Ġdir": 1386,
      "Ġhun": 1387,
      "Ġdelicious": 1388,
      "ake": 1389,
      "Ġfinished": 1390,
      "Ġfriendly": 1391,
      "Ġhot": 1392,
      "Ġcontin": 1393,
      "Ġtall": 1394,
      "Ġsomeone": 1395,
      "Ġherself": 1396,
      "ens": 1397,
      "Ġclose": 1398,
      "Ġmat": 1399,
      "ds": 1400,
      "ross": 1401,
      "Ġhill": 1402,
      "Ġunderstand": 1403,
      "Ġyes": 1404,
      "Ġhid": 1405,
      "lf": 1406,
      "ined": 1407,
      "Ġmight": 1408,
      "Ġmar": 1409,
      "Ġeverywhere": 1410,
      "Ġarrived": 1411,
      "Ġcast": 1412,
      "Ġbug": 1413,
      "Ġelse": 1414,
      "Ġarm": 1415,
      "Ġgent": 1416,
      "Ġwonderful": 1417,
      "Ġtight": 1418,
      "Ġforgot": 1419,
      "ield": 1420,
      "pe": 1421,
      "Ġrel": 1422,
      "Ġsally": 1423,
      "Ġcolors": 1424,
      "Ġsquir": 1425,
      "shed": 1426,
      "Ġpink": 1427,
      "Ġbuild": 1428,
      "ndy": 1429,
      "Ġbroken": 1430,
      "Ġgone": 1431,
      "Ġable": 1432,
      "ner": 1433,
      "Ġgu": 1434,
      "Ġbenny": 1435,
      "Ġlila": 1436,
      "Ġsong": 1437,
      "then": 1438,
      "jack": 1439,
      "Ġfilled": 1440,
      "ich": 1441,
      "Ġbooks": 1442,
      "Ġsquirrel": 1443,
      "Ġagreed": 1444,
      "Ġeverything": 1445,
      "Ġcontinued": 1446,
      "Ġcreat": 1447,
      "Ġcount": 1448,
      "asure": 1449,
      "room": 1450,
      "sk": 1451,
      "set": 1452,
      "ama": 1453,
      "'ll": 1454,
      "Ġwants": 1455,
      "Ġlion": 1456,
      "Ġleaves": 1457,
      "Ġenough": 1458,
      "ced": 1459,
      "Ġtommy": 1460,
      "from": 1461,
      "mo": 1462,
      "Ġju": 1463,
      "Ġmorning": 1464,
      "Ġmoment": 1465,
      "Ġvis": 1466,
      "Ġpi": 1467,
      "Ġgetting": 1468,
      "Ġcookies": 1469,
      "Ġfight": 1470,
      "Ġstayed": 1471,
      "Ġbreak": 1472,
      "av": 1473,
      "ash": 1474,
      "Ġjoy": 1475,
      "Ġscary": 1476,
      "Ġpoin": 1477,
      "Ġwet": 1478,
      "Ġbeach": 1479,
      "ance": 1480,
      "Ġfew": 1481,
      "row": 1482,
      "Ġmother": 1483,
      "Ġfall": 1484,
      "app": 1485,
      "Ġdinner": 1486,
      "Ġturned": 1487,
      "ries": 1488,
      "Ġhungry": 1489,
      "Ġspark": 1490,
      "gon": 1491,
      "Ġamazing": 1492,
      "Ġcream": 1493,
      "Ġmakes": 1494,
      "Ġtrying": 1495,
      "Ġperfect": 1496,
      "his": 1497,
      "oh": 1498,
      "this": 1499,
      "Ġcastle": 1500,
      "Ġothers": 1501,
      "Ġfur": 1502,
      "Ġclimbed": 1503,
      "Ġcomp": 1504,
      "oup": 1505,
      "Ġmus": 1506,
      "Ġpictures": 1507,
      "amp": 1508,
      "Ġwhite": 1509,
      "Ġtalk": 1510,
      "ph": 1511,
      "Ġmet": 1512,
      "Ġwall": 1513,
      "man": 1514,
      "oom": 1515,
      "Ġspl": 1516,
      "Ġlistened": 1517,
      "Ġsmiles": 1518,
      "Ġballoon": 1519,
      "Ġfox": 1520,
      "Ġclot": 1521,
      "oring": 1522,
      "Ġpol": 1523,
      "Ġalone": 1524,
      "Ġclothes": 1525,
      "Ġpen": 1526,
      "Ġpuppy": 1527,
      "Ġbrown": 1528,
      "Ġbilly": 1529,
      "ctor": 1530,
      "Ġtail": 1531,
      "rot": 1532,
      "ated": 1533,
      "ne": 1534,
      "ence": 1535,
      "Ġdeep": 1536,
      "Ġleave": 1537,
      "us": 1538,
      "Ġwasn": 1539,
      "Ġbrought": 1540,
      "Ġsear": 1541,
      "Ġstrange": 1542,
      "ister": 1543,
      "Ġsit": 1544,
      "Ġgrow": 1545,
      "der": 1546,
      "Ġwoods": 1547,
      "Ġpulled": 1548,
      "Ġsail": 1549,
      "ling": 1550,
      "Ġwon": 1551,
      "Ġplan": 1552,
      "Ġpie": 1553,
      "Ġdanger": 1554,
      "Ġride": 1555,
      "Ġasks": 1556,
      "Ġtreat": 1557,
      "Ġtoday": 1558,
      "Ġvisit": 1559,
      "Ġamy": 1560,
      "zz": 1561,
      "uffy": 1562,
      "Ġmusic": 1563,
      "apped": 1564,
      "med": 1565,
      "Ġint": 1566,
      "Ġjen": 1567,
      "Ġhide": 1568,
      "ang": 1569,
      "Ġamazed": 1570,
      "Ġwaited": 1571,
      "Ġtowards": 1572,
      "ok": 1573,
      "Ġland": 1574,
      "max": 1575,
      "ower": 1576,
      "Ġpre": 1577,
      "iet": 1578,
      "Ġfield": 1579,
      "Ġow": 1580,
      "Ġflying": 1581,
      "Ġsilly": 1582,
      "Ġcloud": 1583,
      "Ġruns": 1584,
      "Ġshared": 1585,
      "Ġjob": 1586,
      "ained": 1587,
      "Ġquiet": 1588,
      "Ġowner": 1589,
      "Ġliving": 1590,
      "ever": 1591,
      "gs": 1592,
      "Ġbelie": 1593,
      "ames": 1594,
      "Ġslowly": 1595,
      "Ġpromised": 1596,
      "Ġside": 1597,
      "Ġmoral": 1598,
      "orm": 1599,
      "maybe": 1600,
      "Ġlake": 1601,
      "Ġthinks": 1602,
      "ugg": 1603,
      "cket": 1604,
      "Ġshap": 1605,
      "Ġsister": 1606,
      "Ġpaint": 1607,
      "Ġmust": 1608,
      "igg": 1609,
      "thy": 1610,
      "Ġmoney": 1611,
      "okay": 1612,
      "cle": 1613,
      "Ġparty": 1614,
      "ises": 1615,
      "Ġrace": 1616,
      "Ġcho": 1617,
      "sw": 1618,
      "Ġfluffy": 1619,
      "Ġwel": 1620,
      "Ġwear": 1621,
      "Ġje": 1622,
      "Ġjim": 1623,
      "avy": 1624,
      "Ġworried": 1625,
      "eces": 1626,
      "Ġpieces": 1627,
      "key": 1628,
      "Ġansw": 1629,
      "Ġpot": 1630,
      "Ġfaster": 1631,
      "ased": 1632,
      "Ġmark": 1633,
      "Ġcolorful": 1634,
      "Ġdance": 1635,
      "Ġgrate": 1636,
      "Ġprincess": 1637,
      "Ġbot": 1638,
      "Ġbran": 1639,
      "sure": 1640,
      "Ġbroke": 1641,
      "Ġcup": 1642,
      "fort": 1643,
      "ze": 1644,
      "Ġpro": 1645,
      "Ġgrateful": 1646,
      "Ġgift": 1647,
      "Ġsuch": 1648,
      "Ġbigger": 1649,
      "Ġreach": 1650,
      "Ġwin": 1651,
      "ix": 1652,
      "Ġtrain": 1653,
      "Ġpull": 1654,
      "Ġsnack": 1655,
      "Ġmonster": 1656,
      "Ġcandy": 1657,
      "Ġblank": 1658,
      "Ġna": 1659,
      "Ġele": 1660,
      "Ġblack": 1661,
      "Ġve": 1662,
      "why": 1663,
      "Ġplant": 1664,
      "Ġjoin": 1665,
      "Ġfarmer": 1666,
      "Ġbar": 1667,
      "Ġriver": 1668,
      "ually": 1669,
      "Ġstu": 1670,
      "Ġcall": 1671,
      "Ġblanket": 1672,
      "de": 1673,
      "Ġscream": 1674,
      "Ġtreasure": 1675,
      "Ġsmart": 1676,
      "Ġmagical": 1677,
      "Ġdangerous": 1678,
      "Ġdragon": 1679,
      "less": 1680,
      "Ġmost": 1681,
      "Ġpa": 1682,
      "Ġbike": 1683,
      "Ġsign": 1684,
      "Ġhelping": 1685,
      "Ġacross": 1686,
      "Ġlun": 1687,
      "Ġnap": 1688,
      "cked": 1689,
      "Ġinst": 1690,
      "Ġsna": 1691,
      "Ġbee": 1692,
      "hi": 1693,
      "outh": 1694,
      "ire": 1695,
      "Ġmouth": 1696,
      "Ġdisapp": 1697,
      "Ġspr": 1698,
      "icy": 1699,
      "Ġwords": 1700,
      "Ġmin": 1701,
      "ipped": 1702,
      "start": 1703,
      "umb": 1704,
      "Ġstre": 1705,
      "ored": 1706,
      "Ġtower": 1707,
      "Ġdolls": 1708,
      "Ġdirty": 1709,
      "Ġacc": 1710,
      "eared": 1711,
      "Ġheavy": 1712,
      "ming": 1713,
      "Ġthrew": 1714,
      "Ġstepped": 1715,
      "Ġstuck": 1716,
      "Ġdoctor": 1717,
      "Ġbite": 1718,
      "red": 1719,
      "Ġbowl": 1720,
      "Ġmiss": 1721,
      "uit": 1722,
      "Ġsame": 1723,
      "Ġtwins": 1724,
      "Ġcrying": 1725,
      "Ġbelieve": 1726,
      "ident": 1727,
      "Ġmolly": 1728,
      "Ġluck": 1729,
      "Ġbath": 1730,
      "Ġwouldn": 1731,
      "Ġkitt": 1732,
      "Ġheal": 1733,
      "ere": 1734,
      "Ġhig": 1735,
      "do": 1736,
      "Ġcarrot": 1737,
      "chool": 1738,
      "bble": 1739,
      "Ġclosed": 1740,
      "Ġheart": 1741,
      "Ġchair": 1742,
      "Ġbuck": 1743,
      "mia": 1744,
      "Ġfruit": 1745,
      "Ġcour": 1746,
      "Ġatt": 1747,
      "Ġschool": 1748,
      "Ġteac": 1749,
      "br": 1750,
      "os": 1751,
      "Ġmr": 1752,
      "Ġmix": 1753,
      "fin": 1754,
      "Ġwithout": 1755,
      "Ġhoped": 1756,
      "Ġbask": 1757,
      "Ġfeels": 1758,
      "iting": 1759,
      "Ġjill": 1760,
      "Ġeating": 1761,
      "Ġfairy": 1762,
      "Ġbasket": 1763,
      "pping": 1764,
      "Ġtown": 1765,
      "Ġcray": 1766,
      "Ġcourse": 1767,
      "Ġwelcome": 1768,
      "Ġclapped": 1769,
      "Ġbutt": 1770,
      "Ġstand": 1771,
      "Ġgentle": 1772,
      "Ġpack": 1773,
      "ventually": 1774,
      "Ġdrove": 1775,
      "Ġpushed": 1776,
      "ors": 1777,
      "issed": 1778,
      "ier": 1779,
      "orrow": 1780,
      "Ġhigher": 1781,
      "Ġswings": 1782,
      "Ġalong": 1783,
      "Ġsec": 1784,
      "Ġcorn": 1785,
      "Ġneigh": 1786,
      "Ġmama": 1787,
      "Ġsmo": 1788,
      "Ġpocket": 1789,
      "Ġhit": 1790,
      "Ġteacher": 1791,
      "Ġpiece": 1792,
      "Ġaccident": 1793,
      "Ġneighb": 1794,
      "Ġpers": 1795,
      "ord": 1796,
      "ol": 1797,
      "Ġgames": 1798,
      "Ġfree": 1799,
      "ract": 1800,
      "Ġcheered": 1801,
      "Ġwings": 1802,
      "Ġforget": 1803,
      "Ġjour": 1804,
      "Ġdry": 1805,
      "Ġexplained": 1806,
      "Ġlonger": 1807,
      "Ġyard": 1808,
      "finally": 1809,
      "ible": 1810,
      "ches": 1811,
      "Ġwell": 1812,
      "ment": 1813,
      "Ġmary": 1814,
      "itting": 1815,
      "Ġnoises": 1816,
      "Ġneck": 1817,
      "Ġsang": 1818,
      "Ġthrow": 1819,
      "Ġlate": 1820,
      "Ġhappen": 1821,
      "Ġhugs": 1822,
      "lila": 1823,
      "Ġyoung": 1824,
      "Ġbat": 1825,
      "ead": 1826,
      "Ġstar": 1827,
      "vel": 1828,
      "Ġstories": 1829,
      "Ġturns": 1830,
      "Ġsinging": 1831,
      "Ġlon": 1832,
      "Ġshoes": 1833,
      "phant": 1834,
      "Ġadventures": 1835,
      "Ġking": 1836,
      "ney": 1837,
      "Ġelephant": 1838,
      "Ġtrou": 1839,
      "Ġtiny": 1840,
      "Ġowl": 1841,
      "Ġmine": 1842,
      "Ġapple": 1843,
      "Ġlunch": 1844,
      "Ġsea": 1845,
      "Ġupset": 1846,
      "Ġlonely": 1847,
      "Ġmonkey": 1848,
      "Ġinstead": 1849,
      "Ġwhe": 1850,
      "Ġstreet": 1851,
      "Ġbelong": 1852,
      "Ġdist": 1853,
      "Ġsecret": 1854,
      "oun": 1855,
      "Ġplac": 1856,
      "Ġwish": 1857,
      "Ġph": 1858,
      "ek": 1859,
      "ountain": 1860,
      "Ġpurp": 1861,
      "Ġfence": 1862,
      "tle": 1863,
      "Ġmoved": 1864,
      "Ġwise": 1865,
      "Ġnearby": 1866,
      "Ġexploring": 1867,
      "Ġshook": 1868,
      "Ġsoup": 1869,
      "Ġdes": 1870,
      "Ġmad": 1871,
      "Ġyear": 1872,
      "Ġnaught": 1873,
      "Ġshop": 1874,
      "Ġnaughty": 1875,
      "bow": 1876,
      "Ġstars": 1877,
      "Ġbring": 1878,
      "fused": 1879,
      "Ġjar": 1880,
      "Ġes": 1881,
      "Ġtaking": 1882,
      "Ġinv": 1883,
      "Ġcaught": 1884,
      "Ġexp": 1885,
      "ocked": 1886,
      "Ġnothing": 1887,
      "yard": 1888,
      "ward": 1889,
      "lla": 1890,
      "Ġdropped": 1891,
      "Ġbackyard": 1892,
      "Ġseemed": 1893,
      "Ġrocks": 1894,
      "Ġpurple": 1895,
      "Ġdrink": 1896,
      "Ġrelie": 1897,
      "Ġresp": 1898,
      "ces": 1899,
      "Ġsunny": 1900,
      "Ġemma": 1901,
      "ughter": 1902,
      "Ġ3": 1903,
      "adow": 1904,
      "sy": 1905,
      "Ġbucket": 1906,
      "Ġorange": 1907,
      "Ġswam": 1908,
      "Ġthough": 1909,
      "Ġmail": 1910,
      "Ġpast": 1911,
      "Ġcow": 1912,
      "Ġaf": 1913,
      "col": 1914,
      "Ġcou": 1915,
      "Ġmil": 1916,
      "Ġshapes": 1917,
      "ions": 1918,
      "Ġrainbow": 1919,
      "Ġsitting": 1920,
      "Ġsounds": 1921,
      "Ġwoke": 1922,
      "Ġbench": 1923,
      "bby": 1924,
      "Ġok": 1925,
      "Ġbusy": 1926,
      "cing": 1927,
      "ity": 1928,
      "Ġfit": 1929,
      "Ġwhenever": 1930,
      "Ġwondered": 1931,
      "Ġob": 1932,
      "Ġnose": 1933,
      "Ġnest": 1934,
      "Ġeventually": 1935,
      "Ġlater": 1936,
      "Ġval": 1937,
      "Ġboun": 1938,
      "cks": 1939,
      "Ġdaughter": 1940,
      "ese": 1941,
      "Ġtakes": 1942,
      "Ġjuice": 1943,
      "eter": 1944,
      "Ġpig": 1945,
      "Ġkite": 1946,
      "Ġholding": 1947,
      "read": 1948,
      "Ġkey": 1949,
      "Ġcomes": 1950,
      "la": 1951,
      "Ġarms": 1952,
      "Ġbirth": 1953,
      "Ġbirthday": 1954,
      "ts": 1955,
      "Ġcir": 1956,
      "Ġcoat": 1957,
      "Ġlucky": 1958,
      "ining": 1959,
      "raid": 1960,
      "Ġafraid": 1961,
      "Ġrec": 1962,
      "Ġbranch": 1963,
      "pper": 1964,
      "Ġrelieved": 1965,
      "Ġdriver": 1966,
      "idge": 1967,
      "Ġforever": 1968,
      "Ġmitt": 1969,
      "Ġpeace": 1970,
      "vered": 1971,
      "of": 1972,
      "Ġspoon": 1973,
      "Ġhello": 1974,
      "Ġcute": 1975,
      "Ġcarry": 1976,
      "Ġpromise": 1977,
      "Ġsick": 1978,
      "lect": 1979,
      "Ġlift": 1980,
      "sting": 1981,
      "Ġround": 1982,
      "ours": 1983,
      "ten": 1984,
      "Ġhuge": 1985,
      "Ġact": 1986,
      "Ġpatient": 1987,
      "ear": 1988,
      "cer": 1989,
      "ung": 1990,
      "Ġtouched": 1991,
      "Ġhope": 1992,
      "Ġcheese": 1993,
      "ped": 1994,
      "Ġfing": 1995,
      "Ġgrab": 1996,
      "Ġzoom": 1997,
      "Ġexciting": 1998,
      "Ġletter": 1999,
      "Ġintere": 2000,
      "Ġdays": 2001,
      "Ġlife": 2002,
      "Ġbush": 2003,
      "Ġlaughing": 2004,
      "Ġonto": 2005,
      "Ġbread": 2006,
      "Ġband": 2007,
      "board": 2008,
      "ee": 2009,
      "Ġgigg": 2010,
      "unt": 2011,
      "Ġimag": 2012,
      "gged": 2013,
      "Ġcreature": 2014,
      "Ġpower": 2015,
      "Ġdisco": 2016,
      "Ġret": 2017,
      "hey": 2018,
      "Ġhoney": 2019,
      "arp": 2020,
      "Ġspin": 2021,
      "alm": 2022,
      "Ġkick": 2023,
      "shine": 2024,
      "Ġshell": 2025,
      "Ġcraw": 2026,
      "Ġswimming": 2027,
      "Ġmist": 2028,
      "Ġcozy": 2029,
      "Ġsunshine": 2030,
      "Ġjourney": 2031,
      "Ġwra": 2032,
      "Ġwhist": 2033,
      "Ġinc": 2034,
      "tommy": 2035,
      "Ġsharp": 2036,
      "Ġsuc": 2037,
      "Ġbottle": 2038,
      "Ġmilk": 2039,
      "ness": 2040,
      "Ġwatching": 2041,
      "Ġear": 2042,
      "Ġcomfort": 2043,
      "Ġreturn": 2044,
      "pa": 2045,
      "Ġeas": 2046,
      "Ġpudd": 2047,
      "Ġaccidentally": 2048,
      "Ġcave": 2049,
      "els": 2050,
      "Ġsammy": 2051,
      "Ġspo": 2052,
      "gg": 2053,
      "Ġputs": 2054,
      "Ġtalked": 2055,
      "Ġgives": 2056,
      "Ġpointed": 2057,
      "Ġgather": 2058,
      "Ġent": 2059,
      "itch": 2060,
      "Ġsmiling": 2061,
      "Ġcollect": 2062,
      "Ġfan": 2063,
      "Ġroad": 2064,
      "Ġhor": 2065,
      "Ġanyone": 2066,
      "Ġtweet": 2067,
      "Ġce": 2068,
      "later": 2069,
      "Ġbought": 2070,
      "ball": 2071,
      "Ġsearched": 2072,
      "Ġsandw": 2073,
      "Ġapples": 2074,
      "good": 2075,
      "round": 2076,
      "blem": 2077,
      "Ġproblem": 2078,
      "Ġmeet": 2079,
      "not": 2080,
      "irt": 2081,
      "ize": 2082,
      "Ġmach": 2083,
      "Ġroll": 2084,
      "Ġmummy": 2085,
      "Ġwhis": 2086,
      "mer": 2087,
      "lucy": 2088,
      "Ġwom": 2089,
      "Ġpop": 2090,
      "Ġinteresting": 2091,
      "Ġloves": 2092,
      "Ġwoman": 2093,
      "Ġspid": 2094,
      "Ġplane": 2095,
      "Ġpile": 2096,
      "Ġducks": 2097,
      "Ġkiss": 2098,
      "Ġpres": 2099,
      "Ġhealthy": 2100,
      "Ġtasty": 2101,
      "Ġwide": 2102,
      "Ġvill": 2103,
      "Ġjimmy": 2104,
      "ale": 2105,
      "Ġpath": 2106,
      "Ġtrouble": 2107,
      "amed": 2108,
      "Ġclever": 2109,
      "aur": 2110,
      "Ġadm": 2111,
      "Ġprot": 2112,
      "Ġcrayons": 2113,
      "sie": 2114,
      "Ġclouds": 2115,
      "Ġmatter": 2116,
      "owed": 2117,
      "Ġstorm": 2118,
      "ont": 2119,
      "Ġperson": 2120,
      "Ġpill": 2121,
      "Ġhon": 2122,
      "ub": 2123,
      "Ġap": 2124,
      "Ġsnowman": 2125,
      "eth": 2126,
      "Ġfeather": 2127,
      "Ġrope": 2128,
      "Ġprotect": 2129,
      "Ġshining": 2130,
      "Ġfront": 2131,
      "Ġsmelled": 2132,
      "sc": 2133,
      "Ġbutton": 2134,
      "Ġpract": 2135,
      "Ġrespect": 2136,
      "Ġzoo": 2137,
      "just": 2138,
      "Ġhar": 2139,
      "Ġsaf": 2140,
      "Ġspotted": 2141,
      "Ġminut": 2142,
      "Ġscreamed": 2143,
      "Ġmittens": 2144,
      "Ġpresent": 2145,
      "Ġwhich": 2146,
      "Ġmud": 2147,
      "Ġpar": 2148,
      "Ġorgan": 2149,
      "Ġdanced": 2150,
      "Ġcheer": 2151,
      "Ġbubble": 2152,
      "bob": 2153,
      "jim": 2154,
      "Ġpuzz": 2155,
      "Ġquest": 2156,
      "isa": 2157,
      "Ġteach": 2158,
      "Ġappeared": 2159,
      "Ġmyster": 2160,
      "Ġash": 2161,
      "Ġseat": 2162,
      "Ġthin": 2163,
      "Ġsnake": 2164,
      "molly": 2165,
      "Åĵi": 2166,
      "ching": 2167,
      "Ġbark": 2168,
      "Ġwild": 2169,
      "Ġsur": 2170,
      "Ġcorner": 2171,
      "ove": 2172,
      "Ġasleep": 2173,
      "Ġlovely": 2174,
      "Ġgiant": 2175,
      "Ġanswer": 2176,
      "Ġrob": 2177,
      "Ġgently": 2178,
      "Ġhorse": 2179,
      "epend": 2180,
      "Ġwearing": 2181,
      "Ġwhole": 2182,
      "Ġneighbor": 2183,
      "Ġdirt": 2184,
      "mum": 2185,
      "oose": 2186,
      "Ġplaces": 2187,
      "Ġgoes": 2188,
      "ert": 2189,
      "ps": 2190,
      "Ġshr": 2191,
      "Ġmind": 2192,
      "every": 2193,
      "Ġmed": 2194,
      "Ġimpress": 2195,
      "ular": 2196,
      "Ġsplas": 2197,
      "Ġrose": 2198,
      "Ġconfused": 2199,
      "Ġtries": 2200,
      "Ġdi": 2201,
      "Ġcalm": 2202,
      "Ġlive": 2203,
      "Ġrolled": 2204,
      "Ġemily": 2205,
      "ato": 2206,
      "Ġslid": 2207,
      "Ġcard": 2208,
      "nic": 2209,
      "Ġchick": 2210,
      "Ġsharing": 2211,
      "Ġsupp": 2212,
      "Ġtasted": 2213,
      "Ġpass": 2214,
      "cean": 2215,
      "Ġocean": 2216,
      "Ġforgive": 2217,
      "Ġpicnic": 2218,
      "Ġlar": 2219,
      "Ġcookie": 2220,
      "Ġser": 2221,
      "Ġmachine": 2222,
      "Ġrude": 2223,
      "Ġlast": 2224,
      "Ġdrive": 2225,
      "Ġspent": 2226,
      "Ġteeth": 2227,
      "ssed": 2228,
      "Ġtun": 2229,
      "Ġfurry": 2230,
      "Ġpan": 2231,
      "Ġphone": 2232,
      "ager": 2233,
      "Ġspider": 2234,
      "Ġoven": 2235,
      "Ġlay": 2236,
      "Ġpour": 2237,
      "me": 2238,
      "Ġtomorrow": 2239,
      "Ġdelight": 2240,
      "Ġgrandpa": 2241,
      "Ġpretended": 2242,
      "Ġworm": 2243,
      "Ġring": 2244,
      "Ġfeet": 2245,
      "Ġsal": 2246,
      "Ġfighting": 2247,
      "Ġcouch": 2248,
      "Ġfaces": 2249,
      "unk": 2250,
      "umber": 2251,
      "Ġhelpful": 2252,
      "Ġlad": 2253,
      "Ġwip": 2254,
      "lder": 2255,
      "Ġwave": 2256,
      "Ġban": 2257,
      "bar": 2258,
      "Ġmountain": 2259,
      "Ġbru": 2260,
      "Ġshy": 2261,
      "Ġchocol": 2262,
      "Ġtalking": 2263,
      "ones": 2264,
      "Ġnut": 2265,
      "Ġcart": 2266,
      "Ġtid": 2267,
      "Ġtrue": 2268,
      "Ġstep": 2269,
      "Ġspe": 2270,
      "Ġthese": 2271,
      "Ġself": 2272,
      "Ġspread": 2273,
      "Ġign": 2274,
      "Ġjenny": 2275,
      "Ġvillage": 2276,
      "Ġeager": 2277,
      "Ġsmooth": 2278,
      "Ġfoot": 2279,
      "Ġremind": 2280,
      "Ġpush": 2281,
      "Ġstret": 2282,
      "Ġcoin": 2283,
      "Ġcannot": 2284,
      "Ġwrite": 2285,
      "Ġant": 2286,
      "please": 2287,
      "per": 2288,
      "Ġbuilding": 2289,
      "Ġladder": 2290,
      "Ġrobot": 2291,
      "Ġhiding": 2292,
      "Ġbugs": 2293,
      "Ġtreats": 2294,
      "Ġtool": 2295,
      "Ġchased": 2296,
      "Ġwore": 2297,
      "Ġtrip": 2298,
      "ighed": 2299,
      "Ġblew": 2300,
      "soon": 2301,
      "Ġembar": 2302,
      "Ġcoo": 2303,
      "Ġembarra": 2304,
      "Ġcross": 2305,
      "Ġhum": 2306,
      "Ġfinish": 2307,
      "Ġbell": 2308,
      "Ġwaiting": 2309,
      "Ġpaw": 2310,
      "Ġpool": 2311,
      "Ġpuddle": 2312,
      "ife": 2313,
      "Ġknee": 2314,
      "Ġshelf": 2315,
      "Ġneckl": 2316,
      "Ġstir": 2317,
      "now": 2318,
      "Ġsongs": 2319,
      "als": 2320,
      "Ġhel": 2321,
      "ator": 2322,
      "izz": 2323,
      "ha": 2324,
      "Ġselfish": 2325,
      "Ġchocolate": 2326,
      "ying": 2327,
      "Ġstra": 2328,
      "Ġstring": 2329,
      "airs": 2330,
      "fl": 2331,
      "Ġtaste": 2332,
      "Ġsol": 2333,
      "Ġscar": 2334,
      "Ġlarge": 2335,
      "Ġgen": 2336,
      "Ġbanan": 2337,
      "Ġsack": 2338,
      "Ġchar": 2339,
      "Ġple": 2340,
      "Ġnet": 2341,
      "Ġleaf": 2342,
      "Ġcrab": 2343,
      "mama": 2344,
      "istant": 2345,
      "box": 2346,
      "Ġjake": 2347,
      "Ġfixed": 2348,
      "Ġcele": 2349,
      "Ġspray": 2350,
      "Ġwash": 2351,
      "Ġstone": 2352,
      "Ġtrust": 2353,
      "Ġbarked": 2354,
      "dad": 2355,
      "Ġcelebr": 2356,
      "Ġcloth": 2357,
      "Ġpeaceful": 2358,
      "user": 2359,
      "assistant": 2360,
      "Ġkitty": 2361,
      "umpy": 2362,
      "Ġcolour": 2363,
      ".<|": 2364,
      "akes": 2365,
      "Ġjung": 2366,
      "Ġsplash": 2367,
      "Ġmissed": 2368,
      "Ġjungle": 2369,
      "Ġmoon": 2370,
      "Ġdeter": 2371,
      "Ġhonest": 2372,
      "Ġ'": 2373,
      "iger": 2374,
      "oin": 2375,
      "Ġforward": 2376,
      "Ġjumping": 2377,
      "Ġdeterm": 2378,
      "Ġembarrassed": 2379,
      "Ġlanded": 2380,
      "Ġbal": 2381,
      "Ġgray": 2382,
      "Ġtidy": 2383,
      "Ġnecklace": 2384,
      "Ġdecor": 2385,
      "sarah": 2386,
      "Ġtv": 2387,
      "most": 2388,
      "dge": 2389,
      "old": 2390,
      "Ġgrace": 2391,
      "Ġhears": 2392,
      "Ġsticks": 2393,
      "Ġdisappoin": 2394,
      "Ġlegs": 2395,
      "Ġsuccess": 2396,
      "Ġcarrots": 2397,
      "Ġcreative": 2398,
      "Ġshirt": 2399,
      "Ġber": 2400,
      "Ġtea": 2401,
      "Ġknocked": 2402,
      "Ġmeadow": 2403,
      "ned": 2404,
      "Ġalmost": 2405,
      "getable": 2406,
      "Ġgener": 2407,
      "Ġstood": 2408,
      "Ġvegetable": 2409,
      "Ġsour": 2410,
      "ope": 2411,
      "Ġmeant": 2412,
      "Ġemp": 2413,
      "lex": 2414,
      "Ġbreath": 2415,
      "Ġtightly": 2416,
      "Ġplate": 2417,
      "Ġashamed": 2418,
      "Ġempty": 2419,
      "Ġwhistle": 2420,
      "Ġgas": 2421,
      "Ġpillow": 2422,
      "dle": 2423,
      "Ġtells": 2424,
      "Ġgrew": 2425,
      "ground": 2426,
      "Ġsheep": 2427,
      "den": 2428,
      "Ġlem": 2429,
      "wel": 2430,
      "Ġgold": 2431,
      "Ġunderstood": 2432,
      "Ġcarried": 2433,
      "Ġyelled": 2434,
      "Ġlisa": 2435,
      "oph": 2436,
      "eb": 2437,
      "Ġsave": 2438,
      "Ġdisappointed": 2439,
      "Ġpolice": 2440,
      "Ġhours": 2441,
      "Ġhur": 2442,
      "ian": 2443,
      "vous": 2444,
      "Ġnods": 2445,
      "Ġav": 2446,
      "Ġsnacks": 2447,
      "ye": 2448,
      "ustr": 2449,
      "llie": 2450,
      "ital": 2451,
      "Ġpizz": 2452,
      "Ġkitten": 2453,
      "Ġsparkly": 2454,
      "hin": 2455,
      "Ġhosp": 2456,
      "Ġpay": 2457,
      "Ġchew": 2458,
      "elly": 2459,
      "Ġship": 2460,
      "Ġhospital": 2461,
      "Ġfrustr": 2462,
      "wor": 2463,
      "Ġprince": 2464,
      "Ġstanding": 2465,
      "Ġhidden": 2466,
      "Ġline": 2467,
      "Ġbored": 2468,
      "Ġwolf": 2469,
      "Ġrad": 2470,
      "Ġtest": 2471,
      "urse": 2472,
      "Ġgenerous": 2473,
      "aking": 2474,
      "Ġknowing": 2475,
      "Ġtaught": 2476,
      "een": 2477,
      "stop": 2478,
      "Ġeasy": 2479,
      "Ġglass": 2480,
      "com": 2481,
      "Ġscarf": 2482,
      "Ġrocket": 2483,
      "Ġpoor": 2484,
      "Ġblow": 2485,
      "body": 2486,
      "iff": 2487,
      "Ġminutes": 2488,
      "Ġreturned": 2489,
      "Ġpizza": 2490,
      "Ġbedroom": 2491,
      "Ġplants": 2492,
      "Ġgroup": 2493,
      "Ġpri": 2494,
      "Ġpolite": 2495,
      "Ġwaves": 2496,
      "Ġjelly": 2497,
      "ird": 2498,
      "Ġmysterious": 2499,
      "Ġmir": 2500,
      "Ġsighed": 2501,
      "Ġshore": 2502,
      "there": 2503,
      "ult": 2504,
      "Ġpir": 2505,
      "Ġseed": 2506,
      "Ġpin": 2507,
      "joe": 2508,
      "Ġseek": 2509,
      "up": 2510,
      "Ġpas": 2511,
      "Ġdetermined": 2512,
      "Ġwis": 2513,
      "Ġpeter": 2514,
      "Ġpuzzle": 2515,
      "ready": 2516,
      "Ġner": 2517,
      "Ġfrustrated": 2518,
      "Ġthankful": 2519,
      "Ġpowerful": 2520,
      "Ġclass": 2521,
      "Ġsleepy": 2522,
      "Ġsandwich": 2523,
      "Ġspicy": 2524,
      "Ġfred": 2525,
      "jane": 2526,
      "kin": 2527,
      "Ġfig": 2528,
      "work": 2529,
      "Ġmessy": 2530,
      "Ġdrew": 2531,
      "Ġgun": 2532,
      "Ġmid": 2533,
      "Ġpassed": 2534,
      "Ġfinger": 2535,
      "Ġnervous": 2536,
      "'d": 2537,
      "Ġcloset": 2538,
      "Ġgrumpy": 2539,
      "Ġfancy": 2540,
      "Ġspoil": 2541,
      "Ġtick": 2542,
      "Ġfear": 2543,
      "Ġreg": 2544,
      "pill": 2545,
      "Ġlock": 2546,
      "Ġcirc": 2547,
      "Ġmot": 2548,
      "Ġbridge": 2549,
      "Ġgate": 2550,
      "Ġtears": 2551,
      "Ġdrop": 2552,
      "Ġfeed": 2553,
      "Ġcater": 2554,
      "Ġkissed": 2555,
      "Ġcaterpill": 2556,
      "cap": 2557,
      "Ġsold": 2558,
      "osaur": 2559,
      "sor": 2560,
      "Ġhang": 2561,
      "Ġann": 2562,
      "Ġexcite": 2563,
      "Ġvan": 2564,
      "Ġgathered": 2565,
      "ote": 2566,
      "sorry": 2567,
      "Ġdinosaur": 2568,
      "Ġescap": 2569,
      "Ġflag": 2570,
      "Ġyourself": 2571,
      "Ġleg": 2572,
      "issors": 2573,
      "af": 2574,
      "Ġanswered": 2575,
      "sel": 2576,
      "ina": 2577,
      "Ġscissors": 2578,
      "Ġoften": 2579,
      "Ġcries": 2580,
      "Ġworking": 2581,
      "itter": 2582,
      "Ġug": 2583,
      "Ġchest": 2584,
      "Ġtwirl": 2585,
      "Ġbrush": 2586,
      "selves": 2587,
      "pack": 2588,
      "Ġhopping": 2589,
      "Ġscr": 2590,
      "Ġdeer": 2591,
      "gy": 2592,
      "Ġbubbles": 2593,
      "Ġugly": 2594,
      "Ġsug": 2595,
      "Ġrex": 2596,
      "illed": 2597,
      "Ġcand": 2598,
      "mb": 2599,
      "Ġfil": 2600,
      "sist": 2601,
      "Ġburn": 2602,
      "Ġcaterpillar": 2603,
      "ensive": 2604,
      "Ġexcitement": 2605,
      "uce": 2606,
      "Ġmiddle": 2607,
      "Ġexpensive": 2608,
      "Ġsaved": 2609,
      "Ġlit": 2610,
      "era": 2611,
      "Ġsugar": 2612,
      "Ġtaken": 2613,
      "Ġones": 2614,
      "Ġed": 2615,
      "Ġliz": 2616,
      "Ġwagged": 2617,
      "Ġcrown": 2618,
      "Ġpleased": 2619,
      "Ġonce": 2620,
      "ax": 2621,
      "Ġspend": 2622,
      "oof": 2623,
      "Ġboring": 2624,
      "Ġpicks": 2625,
      "who": 2626,
      "Ġasking": 2627,
      "Ġvase": 2628,
      "Ġtent": 2629,
      "Ġboss": 2630,
      "jimmy": 2631,
      "ose": 2632,
      "Ġtie": 2633,
      "ates": 2634,
      "Ġvegetables": 2635,
      "Ġdancing": 2636,
      "Ġqueen": 2637,
      "light": 2638,
      "Ġgiggled": 2639,
      "ecially": 2640,
      "pecially": 2641,
      "Ġgets": 2642,
      "their": 2643,
      "Ġmistake": 2644,
      "Ġcage": 2645,
      "Ġespecially": 2646,
      "Ġclown": 2647,
      "ets": 2648,
      "Ġnumber": 2649,
      "sual": 2650,
      "Ġflut": 2651,
      "Ġstuff": 2652,
      "Ġcomfortable": 2653,
      "Ġleo": 2654,
      "Ġpacked": 2655,
      "ob": 2656,
      "Ġjohnny": 2657,
      "Ġlying": 2658,
      "Ġwander": 2659,
      "Ġpress": 2660,
      "Ġknight": 2661,
      "Ġmedic": 2662,
      "Ġcleaned": 2663,
      "Ġmoving": 2664,
      "Ġsight": 2665,
      "ror": 2666,
      "iness": 2667,
      "Ġfruits": 2668,
      "Ġsweetie": 2669,
      "Ġdrum": 2670,
      "Ġfake": 2671,
      "ggs": 2672,
      "Ġpus": 2673,
      "Ġdest": 2674,
      "Ġeggs": 2675,
      "ond": 2676,
      "Ġglue": 2677,
      "mor": 2678,
      "Ġmedicine": 2679,
      "Ġwalks": 2680,
      "Ġdistance": 2681,
      "Ġroar": 2682,
      "Ġdrawing": 2683,
      "Ġbone": 2684,
      "Ġlemon": 2685,
      "Ġsplashed": 2686,
      "Ġtwist": 2687,
      "Ġlead": 2688,
      "Ġmov": 2689,
      "Ġbake": 2690,
      "Ġpray": 2691,
      "Ġclap": 2692,
      "Ġelder": 2693,
      "Ġweek": 2694,
      "yal": 2695,
      "Ġdisappeared": 2696,
      "Ġmill": 2697,
      "Ġchange": 2698,
      "Ġsmelly": 2699,
      "Ġdogs": 2700,
      "Ġyog": 2701,
      "Ġbathroom": 2702,
      "Ġfold": 2703,
      "gra": 2704,
      "Ġfeathers": 2705,
      "Ġbill": 2706,
      "Ġbecome": 2707,
      "Ġmoms": 2708,
      "Ġbatter": 2709,
      "oop": 2710,
      "Ġrich": 2711,
      "Ġfis": 2712,
      "Ġlose": 2713,
      "Ġcalling": 2714,
      "Ġlicked": 2715,
      "Ġlazy": 2716,
      "Ġmic": 2717,
      "Ġadd": 2718,
      "Ġrid": 2719,
      "Ġfather": 2720,
      "Ġplayground": 2721,
      "Ġcri": 2722,
      "Ġmatch": 2723,
      "Ġelderly": 2724,
      "Ġweak": 2725,
      "ots": 2726,
      "Ġincred": 2727,
      "sally": 2728,
      "Ġhorn": 2729,
      "Ġexam": 2730,
      "Ġbody": 2731,
      "?\".": 2732,
      "Ġyours": 2733,
      "Ġquestions": 2734,
      "Ġwrote": 2735,
      "billy": 2736,
      "Ġmirror": 2737,
      "Ġnoisy": 2738,
      "Ġloyal": 2739,
      "Ġnod": 2740,
      "uggest": 2741,
      "Ġchir": 2742,
      "Ġsuggest": 2743,
      "Ġwheel": 2744,
      "Ġclear": 2745,
      "Ġskipped": 2746,
      "land": 2747,
      "eez": 2748,
      "well": 2749,
      "Ġcheck": 2750,
      "Ġlamp": 2751,
      "Ġdish": 2752,
      "keep": 2753,
      "Ġext": 2754,
      "hip": 2755,
      "Ġglow": 2756,
      "Ġtape": 2757,
      "Ġfamous": 2758,
      "Ġdig": 2759,
      "Ġtiger": 2760,
      "amy": 2761,
      "Ġrare": 2762,
      "Ġstones": 2763,
      "Ġjam": 2764,
      "Ġaunt": 2765,
      "Ġruined": 2766,
      "ination": 2767,
      "Ġord": 2768,
      "Ġsoap": 2769,
      "Ġind": 2770,
      "izzy": 2771,
      "Ġsell": 2772,
      "Ġfigure": 2773,
      "Ġcontent": 2774,
      "Ġdrank": 2775,
      "Ġshows": 2776,
      "Ġrelax": 2777,
      "Ġincredible": 2778,
      "Ġswan": 2779,
      "Ġcovered": 2780,
      "Ġjuicy": 2781,
      "Ġshoot": 2782,
      "Ġteam": 2783,
      "Ġballs": 2784,
      "Ġsailed": 2785,
      "ating": 2786,
      "Ġmeasure": 2787,
      "que": 2788,
      "ately": 2789,
      "Ġdecide": 2790,
      "how": 2791,
      "Ġneeds": 2792,
      "Ġrealised": 2793,
      "umbled": 2794,
      "Ġmay": 2795,
      "Ġcoins": 2796,
      "Ġdiscovered": 2797,
      "help": 2798,
      "Ġang": 2799,
      "ti": 2800,
      "Ġborrow": 2801,
      "Ġturt": 2802,
      "Ġbarn": 2803,
      "Ġstraw": 2804,
      "Ġter": 2805,
      "fic": 2806,
      "Ġham": 2807,
      "Ġadventur": 2808,
      "aser": 2809,
      "jill": 2810,
      "Ġchicken": 2811,
      "Ġmod": 2812,
      "Ġtowel": 2813,
      "Ġboys": 2814,
      "Ġextra": 2815,
      "Ġbranches": 2816,
      "asing": 2817,
      "Ġpenny": 2818,
      "Ġmap": 2819,
      "Ġmotor": 2820,
      "port": 2821,
      "Ġjoke": 2822,
      "cept": 2823,
      "Ġboard": 2824,
      "pes": 2825,
      "Ġfine": 2826,
      "Ġbalance": 2827,
      "Ġadventurous": 2828,
      "Ġdiffic": 2829,
      "Ġoffered": 2830,
      "aged": 2831,
      "Ġthick": 2832,
      "Ġlifted": 2833,
      "gu": 2834,
      "Ġuni": 2835,
      "Ġmighty": 2836,
      "Ġcolourful": 2837,
      "Ġdolp": 2838,
      "Ġsnugg": 2839,
      "Ġfrown": 2840,
      "Ġeye": 2841,
      "Ġtoug": 2842,
      "Ġdifficult": 2843,
      "mummy": 2844,
      "Ġbottom": 2845,
      "Ġcover": 2846,
      "Ġunique": 2847,
      "alous": 2848,
      "Ġorganized": 2849,
      "Ġjealous": 2850,
      "Ġhappening": 2851,
      "Ġtag": 2852,
      "Ġhose": 2853,
      "Ġisland": 2854,
      "Ġknife": 2855,
      "Ġlearning": 2856,
      "Ġweird": 2857,
      "Ġfright": 2858,
      "cil": 2859,
      "imp": 2860,
      "rag": 2861,
      "Ġkindness": 2862,
      "Ġsusie": 2863,
      "arage": 2864,
      "sue": 2865,
      "Ġsil": 2866,
      "Ġgarage": 2867,
      "Ġhurts": 2868,
      "Ġmanaged": 2869,
      "Ġpencil": 2870,
      "Ġword": 2871,
      "imed": 2872,
      "illi": 2873,
      "ho": 2874,
      "Ġsmoke": 2875,
      "Ġbald": 2876,
      "iv": 2877,
      "ject": 2878,
      "Ġcircle": 2879,
      "Ġwand": 2880,
      "lies": 2881,
      "Ġcost": 2882,
      "Ġsaying": 2883,
      "Ġcrawled": 2884,
      "spot": 2885,
      "Ġballoons": 2886,
      "Ġedge": 2887,
      "Ġchase": 2888,
      "Ġcompet": 2889,
      "Ġshake": 2890,
      "Ġtough": 2891,
      "Ġberries": 2892,
      "Ġhunt": 2893,
      "Ġfour": 2894,
      "ured": 2895,
      "Ġsearch": 2896,
      "Ġpointing": 2897,
      "Ġdizzy": 2898,
      "Ġguess": 2899,
      "Ġjewel": 2900,
      "Ġfavour": 2901,
      "Ġapol": 2902,
      "keeper": 2903,
      "Ġwhale": 2904,
      "ipper": 2905,
      "Ġbobby": 2906,
      "Ġlouder": 2907,
      "Ġspun": 2908,
      "Ġharder": 2909,
      "Ġalready": 2910,
      "Ġadded": 2911,
      "head": 2912,
      "Ġapolog": 2913,
      "Ġguit": 2914,
      "Ġunu": 2915,
      "Ġpump": 2916,
      "Ġturtle": 2917,
      "ocer": 2918,
      "Ġnorm": 2919,
      "Ġfool": 2920,
      "go": 2921,
      "Ġcleaning": 2922,
      "Ġdust": 2923,
      "Ġwrapped": 2924,
      "Ġfavourite": 2925,
      "Ġunusual": 2926,
      "Ġlibr": 2927,
      "Ġenjoying": 2928,
      "Ġvalu": 2929,
      "rage": 2930,
      "Ġhero": 2931,
      "Ġhats": 2932,
      "Ġcomplet": 2933,
      "Ġstrawber": 2934,
      "Ġzip": 2935,
      "Ġbirdie": 2936,
      "Ġbelonged": 2937,
      "Ġcheerful": 2938,
      "Ġtrucks": 2939,
      "ddy": 2940,
      "alk": 2941,
      "Ġgiving": 2942,
      "Ġimpressed": 2943,
      "Ġtrunk": 2944,
      "Ġrecord": 2945,
      "uct": 2946,
      "Ġscare": 2947,
      "Ġsword": 2948,
      "Ġmarket": 2949,
      "Ġflash": 2950,
      "Ġgrown": 2951,
      "Ġnormal": 2952,
      "Ġlaughs": 2953,
      "Ġcoco": 2954,
      "Ġbanana": 2955,
      "anged": 2956,
      "Ġcircles": 2957,
      "Ġears": 2958,
      "Ġharm": 2959,
      "Ġmeans": 2960,
      "Ġbossy": 2961,
      "Ġbrilli": 2962,
      "Ġguitar": 2963,
      "Ġloudly": 2964,
      "Ġchoose": 2965,
      "Ġterri": 2966,
      "Ġbrilliant": 2967,
      "Ġproudly": 2968,
      "Ġboxes": 2969,
      "ym": 2970,
      "Ġgoat": 2971,
      "ilt": 2972,
      "ature": 2973,
      "Ġpau": 2974,
      "Ġhelps": 2975,
      "Ġescape": 2976,
      "Ġpil": 2977,
      "Ġbrothers": 2978,
      "Ġwake": 2979,
      "Ġbuttons": 2980,
      "Ġpainting": 2981,
      "Ġcab": 2982,
      "Ġpee": 2983,
      "Ġagainst": 2984,
      "Ġdreamed": 2985,
      "?<|": 2986,
      "Ġwhisp": 2987,
      "Ġskin": 2988,
      "fast": 2989,
      "Ġinvited": 2990,
      "Ġstri": 2991,
      "Ġfrightened": 2992,
      "Ġhappiness": 2993,
      "Ġtoast": 2994,
      "Ġmelt": 2995,
      "cient": 2996,
      "jen": 2997,
      "Ġcudd": 2998,
      "Ġwalls": 2999,
      "Ġdepend": 3000,
      "Ġaccept": 3001,
      "ages": 3002,
      "Ġsafely": 3003,
      "ony": 3004,
      "ipe": 3005,
      "Ġstubb": 3006,
      "Ġuncle": 3007,
      "Ġpete": 3008,
      "Ġcabin": 3009,
      "Ġclay": 3010,
      "Ġdesign": 3011,
      "Ġslipped": 3012,
      "Ġfier": 3013,
      "Ġstubborn": 3014,
      "Ġancient": 3015,
      "Ġstudy": 3016,
      "Ġsadly": 3017,
      "ail": 3018,
      "Ġvaluable": 3019,
      "Ġstream": 3020,
      "Ġcrayon": 3021,
      "Ġbreakfast": 3022,
      "Ġexcitedly": 3023,
      "Ġthose": 3024,
      "Ġellie": 3025,
      "ouses": 3026,
      "Ġlog": 3027,
      "Ġdreams": 3028,
      "Ġsuccessful": 3029,
      "edient": 3030,
      "Ġbloom": 3031,
      "Ġshark": 3032,
      "Ġfridge": 3033,
      "Ġknows": 3034,
      "pet": 3035,
      "Ġfoolish": 3036,
      "Ġlean": 3037,
      "orge": 3038,
      "Ġlow": 3039,
      "time": 3040,
      "Ġbuzz": 3041,
      "Ġfalls": 3042,
      "Ġthu": 3043,
      "Ġunl": 3044,
      "Ġmovie": 3045,
      "Ġspace": 3046,
      "Ġshape": 3047,
      "Ġfat": 3048,
      "aw": 3049,
      "Ġnicely": 3050,
      "Ġfierce": 3051,
      "Ġrough": 3052,
      "Ġnosy": 3053,
      "Ġcher": 3054,
      "Ġcity": 3055,
      "Ġhouses": 3056,
      "Ġshadow": 3057,
      "Ġtomato": 3058,
      "Ġcro": 3059,
      "Ġoffice": 3060,
      "Ġdelicate": 3061,
      "Ġobedient": 3062,
      "Ġicy": 3063,
      "ado": 3064,
      "Ġson": 3065,
      "laimed": 3066,
      "Ġdead": 3067,
      "Åĵlet": 3068,
      "Ġcompetit": 3069,
      "Ġsuggested": 3070,
      "atter": 3071,
      "Ġlights": 3072,
      "Ġnotice": 3073,
      "Ġwagon": 3074,
      "Ġexclaimed": 3075,
      "Ġperform": 3076,
      "Ġuseful": 3077,
      "Ġrat": 3078,
      "Ġmixed": 3079,
      "Ġkinds": 3080,
      "Ġshells": 3081,
      "Ġwiped": 3082,
      "Ġbeep": 3083,
      "Ġegg": 3084,
      "Ġpoured": 3085,
      "uth": 3086,
      "grand": 3087,
      "Ġbobo": 3088,
      "Ġlocked": 3089,
      "Ġtools": 3090,
      "Ġsounded": 3091,
      "Ġstove": 3092,
      "wards": 3093,
      "Ġexplored": 3094,
      "Ġfrag": 3095,
      "Ġbounce": 3096,
      "corn": 3097,
      "Ġcrack": 3098,
      "!\".": 3099,
      "Ġtimes": 3100,
      "Ġenc": 3101,
      "Ġspinning": 3102,
      "Ġge": 3103,
      "Ġtweety": 3104,
      "Ġfountain": 3105,
      "Ġabove": 3106,
      "Ġbags": 3107,
      "Ġfre": 3108,
      "Ġweal": 3109,
      "Ġpatch": 3110,
      "Ġlab": 3111,
      "Ġswe": 3112,
      "Ġresc": 3113,
      "az": 3114,
      "Ġshowing": 3115,
      "Ġthemselves": 3116,
      "Ġstairs": 3117,
      "ention": 3118,
      "Ġspoiled": 3119,
      "Ġstumbled": 3120,
      "Ġwitch": 3121,
      "Ġbushes": 3122,
      "dom": 3123,
      "Ġeng": 3124,
      "while": 3125,
      "Ġdough": 3126,
      "Ġfingers": 3127,
      "arth": 3128,
      "vice": 3129,
      "Ġthoughtful": 3130,
      "apping": 3131,
      "Ġindepend": 3132,
      "Ġpopcorn": 3133,
      "Ġsmaller": 3134,
      "ey": 3135,
      "Ġjog": 3136,
      "Ġhi": 3137,
      "Ġdependable": 3138,
      "Ġscrat": 3139,
      "Ġprint": 3140,
      "Ġlaw": 3141,
      "Ġfragile": 3142,
      "Ġparrot": 3143,
      "Ġseem": 3144,
      "Ġplayful": 3145,
      "ses": 3146,
      "Ġunk": 3147,
      "mm": 3148,
      "da": 3149,
      "Ġmel": 3150,
      "ines": 3151,
      "Ġraced": 3152,
      "Ġrep": 3153,
      "Ġhelm": 3154,
      "Ġtele": 3155,
      "Ġclock": 3156,
      "Ġjolly": 3157,
      "inal": 3158,
      "Ġdelighted": 3159,
      "Ġbrightly": 3160,
      "Ġcam": 3161,
      "Ġrode": 3162,
      "Ġorig": 3163,
      "ormous": 3164,
      "Ġcop": 3165,
      "Ġusing": 3166,
      "Ġsunfl": 3167,
      "Ġbees": 3168,
      "Ġearth": 3169,
      "Ġbuilt": 3170,
      "Ġenormous": 3171,
      "Ġpractice": 3172,
      "Ġacorn": 3173,
      "Ġadmired": 3174,
      "Ġroof": 3175,
      "Ġsteal": 3176,
      "Ġkicked": 3177,
      "Ġcounted": 3178,
      "Ġtwig": 3179,
      "Ġchanged": 3180,
      "Ġways": 3181,
      "Ġrug": 3182,
      "Ġsniff": 3183,
      "Ġshone": 3184,
      "Ġella": 3185,
      "Ġreminded": 3186,
      "Ġhammer": 3187,
      "Ġmemor": 3188,
      "ience": 3189,
      "Ġgem": 3190,
      "Ġindependent": 3191,
      "Ġyet": 3192,
      "Ġbitter": 3193,
      "eeze": 3194,
      "cu": 3195,
      "Åĵyes": 3196,
      "Ġbeak": 3197,
      "ither": 3198,
      "Ġloll": 3199,
      "Ġoriginal": 3200,
      "Ġhanded": 3201,
      "nown": 3202,
      "Ġbean": 3203,
      "Ġwhispered": 3204,
      "anut": 3205,
      "Ġdove": 3206,
      "Ġchose": 3207,
      "Ġtunn": 3208,
      "Ġcone": 3209,
      "Ġbump": 3210,
      "Ġumb": 3211,
      "Ġserious": 3212,
      "Ġumbre": 3213,
      "Ġallowed": 3214,
      "Ġmrs": 3215,
      "Ġsolve": 3216,
      "Ġguard": 3217,
      "Ġstronger": 3218,
      "Ġfinding": 3219,
      "Ġhairy": 3220,
      "Ġtummy": 3221,
      "ipop": 3222,
      "Ġmis": 3223,
      "Ġlollipop": 3224,
      "Ġterrible": 3225,
      "Ġbrace": 3226,
      "Ġpotato": 3227,
      "Ġboats": 3228,
      "Ġpand": 3229,
      "Ġsauce": 3230,
      "Ġpeanut": 3231,
      "Ġmoder": 3232,
      "Ġpainted": 3233,
      "Ġbracelet": 3234,
      "Ġangel": 3235,
      "Ġunknown": 3236,
      "see": 3237,
      "Ġpumpkin": 3238,
      "Ġsalad": 3239,
      "Ġhalf": 3240,
      "ict": 3241,
      "iable": 3242,
      "Ġleaving": 3243,
      "Ġbella": 3244,
      "Ġsink": 3245,
      "Ġgasped": 3246,
      "Ġwrap": 3247,
      "Ġclum": 3248,
      "Ġpicking": 3249,
      "Ġjoined": 3250,
      "Ġstrugg": 3251,
      "Ġreliable": 3252,
      "iew": 3253,
      "het": 3254,
      "Ġtor": 3255,
      "Ġthinking": 3256,
      "Ġtank": 3257,
      "uring": 3258,
      "Ġpost": 3259,
      "Ġhay": 3260,
      "inary": 3261,
      "tern": 3262,
      "Ġnemo": 3263,
      "Ġmetal": 3264,
      "Ġcostum": 3265,
      "amond": 3266,
      "Ġdoesn": 3267,
      "Ġbarber": 3268,
      "erry": 3269,
      "robe": 3270,
      "Ġdolphin": 3271,
      "Ġdiamond": 3272,
      "Ġgoose": 3273,
      "Ġview": 3274,
      "happy": 3275,
      "Ġthunder": 3276,
      "Ġrubb": 3277,
      "anger": 3278,
      "ray": 3279,
      "Ġpirate": 3280,
      "Ġforth": 3281,
      "Ġsleeping": 3282,
      "aghet": 3283,
      "aghetti": 3284,
      "Ġmodern": 3285,
      "Ġadvice": 3286,
      "Ġstamp": 3287,
      "Ġholds": 3288,
      "Ġarg": 3289,
      "eak": 3290,
      "Ġfu": 3291,
      "Ġsof": 3292,
      "Ġer": 3293,
      "Ġing": 3294,
      "Ġtu": 3295,
      "Ġmarble": 3296,
      "Ġspaghetti": 3297,
      "Ġregular": 3298,
      "Ġclumsy": 3299,
      "Ġalice": 3300,
      "Ġflex": 3301,
      "Ġspring": 3302,
      "ugged": 3303,
      "Åĵwhat": 3304,
      "Ġcreate": 3305,
      "Ġwealthy": 3306,
      "pid": 3307,
      "Ġyarn": 3308,
      "Ġfriendship": 3309,
      "Ġstupid": 3310,
      "redient": 3311,
      "Ġcheap": 3312,
      "Ġsearching": 3313,
      "Ġingredient": 3314,
      "Ġzeb": 3315,
      "Ġmagn": 3316,
      "Ġrub": 3317,
      "Ġprep": 3318,
      "Ġtelling": 3319,
      "Ġcoll": 3320,
      "Ġrushed": 3321,
      "Ġnature": 3322,
      "Ġzebra": 3323,
      "ilty": 3324,
      "Ġguilty": 3325,
      "Ġcompass": 3326,
      "Ġwheels": 3327,
      "Ġstat": 3328,
      "Ġol": 3329,
      "ery": 3330,
      "Ġmask": 3331,
      "ations": 3332,
      "Ġsquare": 3333,
      "Ġarrow": 3334,
      "Ġcur": 3335,
      "Ġopens": 3336,
      "Ġengine": 3337,
      "Ġmarch": 3338,
      "Ġcrazy": 3339,
      "Ġbeet": 3340,
      "Ġknock": 3341,
      "mary": 3342,
      "Ġducky": 3343,
      "Åĵit": 3344,
      "io": 3345,
      "Ġgraceful": 3346,
      "eezed": 3347,
      "irsty": 3348,
      "Ġdriving": 3349,
      "fish": 3350,
      "Ġcamera": 3351,
      "Ġumbrella": 3352,
      "Ġflexible": 3353,
      "Ġcroco": 3354,
      "Ġmike": 3355,
      "Ġshiver": 3356,
      "âĤ¬âĢ": 3357,
      "Ġcarrying": 3358,
      "Ġshel": 3359,
      "Ġdull": 3360,
      "Ġpopular": 3361,
      "Ġwashed": 3362,
      "Ġpebble": 3363,
      "Ġsuper": 3364,
      "Ġstage": 3365,
      "Ġtruth": 3366,
      "umbers": 3367,
      "Ġmissing": 3368,
      "Ġcrocod": 3369,
      "Ġreading": 3370,
      "Ġsparkled": 3371,
      "Ġnobody": 3372,
      "illa": 3373,
      "Ġseeds": 3374,
      "Ġmeal": 3375,
      "Ġimpressive": 3376,
      "Ġavo": 3377,
      "Ġcareless": 3378,
      "Ġhandle": 3379,
      "Ġtied": 3380,
      "Ġcomb": 3381,
      "Ġlibrary": 3382,
      "Ġspeed": 3383,
      "Ġdestro": 3384,
      "Ġimagined": 3385,
      "reen": 3386,
      "Ġhoop": 3387,
      "Ġdeliver": 3388,
      "Ġpige": 3389,
      "Ġreward": 3390,
      "Ġcere": 3391,
      "Ġjacket": 3392,
      "Ġending": 3393,
      "Ġdreaming": 3394,
      "Ġfresh": 3395,
      "Ġpersist": 3396,
      "Ġprize": 3397,
      "ision": 3398,
      "Ġbull": 3399,
      "Ġshocked": 3400,
      "Ġrubbed": 3401,
      "Ġingredients": 3402,
      "Ġwire": 3403,
      "Ġcryst": 3404,
      "Ġcompassion": 3405,
      "ory": 3406,
      "Ġsudden": 3407,
      "Ġload": 3408,
      "Ġdave": 3409,
      "Ġbigg": 3410,
      "ÅĵletÃ¢": 3411,
      "Ġpattern": 3412,
      "Ġenth": 3413,
      "Ġspilled": 3414,
      "Ġbutterflies": 3415,
      "ibb": 3416,
      "Ġencou": 3417,
      "ief": 3418,
      "ley": 3419,
      "Ġdesk": 3420,
      "Ġflashlight": 3421,
      "Ġenvel": 3422,
      "Ġstranger": 3423,
      "Ġthirsty": 3424,
      "ĠitÃ¢": 3425,
      "Ġfork": 3426,
      "arsh": 3427,
      "Ġearly": 3428,
      "Ġchirp": 3429,
      "Ġenthus": 3430,
      "Ġnumbers": 3431,
      "oot": 3432,
      "Ġmailbox": 3433,
      "Ġpepper": 3434,
      "ement": 3435,
      "Ġahead": 3436,
      "Ġtem": 3437,
      "Ġsuit": 3438,
      "loo": 3439,
      "Ġdiscover": 3440,
      "Ġgum": 3441,
      "Ġpup": 3442,
      "Ġpeeked": 3443,
      "Ġtorn": 3444,
      "Ġpengu": 3445,
      "Ġstops": 3446,
      "Ġnurse": 3447,
      "Ġorder": 3448,
      "Ġcomput": 3449,
      "Ġrece": 3450,
      "Ġpear": 3451,
      "Ġsurf": 3452,
      "Ġpow": 3453,
      "Ġenv": 3454,
      "Ġwing": 3455,
      "Ġhumble": 3456,
      "Ġkay": 3457,
      "Ġobject": 3458,
      "Ġmole": 3459,
      "Ġtowers": 3460,
      "bled": 3461,
      "comfort": 3462,
      "Ġsorts": 3463,
      "Ġbent": 3464,
      "Ġsoph": 3465,
      "ellig": 3466,
      "Ġanx": 3467,
      "Ġsunflower": 3468,
      "Ġintellig": 3469,
      "Ġcereal": 3470,
      "Ġwindows": 3471,
      "Ġwarned": 3472,
      "Ġraven": 3473,
      "Ġpant": 3474,
      "Ġspoke": 3475,
      "Ġcounting": 3476,
      "Ġcooking": 3477,
      "Ġnote": 3478,
      "Ġuncomfort": 3479,
      "Ġpale": 3480,
      "Ġfro": 3481,
      "Ġuncomfortable": 3482,
      "Ġmandy": 3483,
      "Ġplaced": 3484,
      "iches": 3485,
      "Ġtravel": 3486,
      "Ġscale": 3487,
      "Ġbadly": 3488,
      "Ġbeetle": 3489,
      "Ġslides": 3490,
      "Ġstatue": 3491,
      "Ġolder": 3492,
      "Ġbiggest": 3493,
      "Ġanxious": 3494,
      "Ġcompl": 3495,
      "Ġscoot": 3496,
      "Ġgrowing": 3497,
      "Ġmush": 3498,
      "yay": 3499,
      "Ġflute": 3500,
      "ĠcouldnÃ¢": 3501,
      "Ġstack": 3502,
      "Ġhurry": 3503,
      "Ġsofa": 3504,
      "Ġdeaf": 3505,
      "Ġtunnel": 3506,
      "awn": 3507,
      "Ġcelebrate": 3508,
      "ikes": 3509,
      "Ġnail": 3510,
      "Ġcrocodile": 3511,
      "host": 3512,
      "Ġvalue": 3513,
      "Ġcupboard": 3514,
      "Ġscatter": 3515,
      "Ġghost": 3516,
      "Ġharmless": 3517,
      "Ġcrane": 3518,
      "Ġbeauty": 3519,
      "Ġkim": 3520,
      "Ġtrick": 3521,
      "Ġgloom": 3522,
      "Ġshut": 3523,
      "Ġuniver": 3524,
      "Ġperm": 3525,
      "Ġpersistent": 3526,
      "Ġcharming": 3527,
      "Ġflour": 3528,
      "Ġgifted": 3529,
      "Ġhung": 3530,
      "Ġjumps": 3531,
      "Ġtur": 3532,
      "Ġyawn": 3533,
      "Ġrefused": 3534,
      "Ġtrack": 3535,
      "Ġcourage": 3536,
      "Ġlau": 3537,
      "Ġpony": 3538,
      "Ġcurt": 3539,
      "Ġmuff": 3540,
      "Ġneat": 3541,
      "Ġpretending": 3542,
      "Ġnames": 3543,
      "Ġbase": 3544,
      "lie": 3545,
      "opus": 3546,
      "ctopus": 3547,
      "Ġvi": 3548,
      "cream": 3549,
      "Ġsandwiches": 3550,
      "Ġsupport": 3551,
      "Ġcrystal": 3552,
      "Ġcurtain": 3553,
      "Ġtriang": 3554,
      "Ġcamp": 3555,
      "Ġoctopus": 3556,
      "ices": 3557,
      "Ġlola": 3558,
      "Ġsnuggled": 3559,
      "Ġskip": 3560,
      "Ġtoby": 3561,
      "Ġordinary": 3562,
      "Ġdestroy": 3563,
      "Ġchasing": 3564,
      "ince": 3565,
      "Ġquestion": 3566,
      "Ġpian": 3567,
      "Ġsend": 3568,
      "Ġenvelope": 3569,
      "Ġdrawer": 3570,
      "Ġcomputer": 3571,
      "Ġrules": 3572,
      "Ġcrawl": 3573,
      "Ġattract": 3574,
      "daisy": 3575,
      "Ġblueber": 3576,
      "Ġlively": 3577,
      "aid": 3578,
      "Ġcartoon": 3579,
      "stri": 3580,
      "Ġmushroom": 3581,
      "Ġgloomy": 3582,
      "Ġcarpet": 3583,
      "alice": 3584,
      "Ġbri": 3585,
      "Ġpiano": 3586,
      "Ġintelligent": 3587,
      "Ġlizard": 3588,
      "Ġshaking": 3589,
      "Ġneedle": 3590,
      "Ġpackage": 3591,
      "Åĵthat": 3592,
      "Ġhelmet": 3593,
      "aches": 3594,
      "Ġot": 3595,
      "Ġhunter": 3596,
      "Ġcollar": 3597,
      "Ġparade": 3598,
      "Ġcreatures": 3599,
      "heart": 3600,
      "Ġignor": 3601,
      "Ġphot": 3602,
      "Ġtwirled": 3603,
      "Ġalert": 3604,
      "Ġfireman": 3605,
      "Ġthief": 3606,
      "erable": 3607,
      "Ġtrap": 3608,
      "Ġstation": 3609,
      "Ġseal": 3610,
      "Ġmiserable": 3611,
      "Ġsoldier": 3612,
      "gust": 3613,
      "Ġtask": 3614,
      "Ġanywhere": 3615,
      "Ġostri": 3616,
      "ceed": 3617,
      "cut": 3618,
      "Ġener": 3619,
      "Ġbicy": 3620,
      "Ġdisgust": 3621,
      "Ġdug": 3622,
      "Ġtooth": 3623,
      "Ġrepe": 3624,
      "ric": 3625,
      "Ġfort": 3626,
      "Ġclub": 3627,
      "give": 3628,
      "cond": 3629,
      "iest": 3630,
      "Ġjet": 3631,
      "Ġresist": 3632,
      "Ġignorant": 3633,
      "Ġvide": 3634,
      "Ġwishes": 3635,
      "oe": 3636,
      "Ġturkey": 3637,
      "ubby": 3638,
      "Ġled": 3639,
      "Ġscreen": 3640,
      "Ġsecond": 3641,
      "Ġshine": 3642,
      "Ġgir": 3643,
      "Ġsum": 3644,
      "Ġradio": 3645,
      "Ġpasta": 3646,
      "Ġstickers": 3647,
      "Ġbandage": 3648,
      "ips": 3649,
      "Ġcricket": 3650,
      "Ġpoppy": 3651,
      "Ġhelpless": 3652,
      "Ġtrash": 3653,
      "Ġbounced": 3654,
      "Ġcube": 3655,
      "Ġjeep": 3656,
      "Ġpigeon": 3657,
      "Ġleash": 3658,
      "ella": 3659,
      "Ġcocoa": 3660,
      "Ġchubby": 3661,
      "Ġpracticed": 3662,
      "Ġchance": 3663,
      "Ġletters": 3664,
      "Ġotter": 3665,
      "Ġattractive": 3666,
      "Ġaw": 3667,
      "Ġimpat": 3668,
      "Ġthread": 3669,
      "Ġgor": 3670,
      "keys": 3671,
      "Ġstretched": 3672,
      "Ġstirred": 3673,
      "Ġcompassionate": 3674,
      "Ġthanks": 3675,
      "urb": 3676,
      "Ġpun": 3677,
      "Ġsomewhere": 3678,
      "Ġgeorge": 3679,
      "ccol": 3680,
      "Ġtrump": 3681,
      "Ġstretch": 3682,
      "benny": 3683,
      "ccoli": 3684,
      "Ġdisturb": 3685,
      "Ġsteps": 3686,
      "arian": 3687,
      "Ġpolly": 3688,
      "Ġdecorate": 3689,
      "Ġjug": 3690,
      "Ġwaff": 3691,
      "Ġbrighter": 3692,
      "Ġtire": 3693,
      "Ġfurther": 3694,
      "Ġimpatient": 3695,
      "Ġcompetitive": 3696,
      "Ġhipp": 3697,
      "Ġrespectful": 3698,
      "Ġsucceed": 3699,
      "Ġtroubled": 3700,
      "Ġpressed": 3701,
      "Ġsummer": 3702,
      "Ġmug": 3703,
      "Ġcandle": 3704,
      "Ġitself": 3705,
      "Ġbroccoli": 3706,
      "Ġleop": 3707,
      "Ġcase": 3708,
      "Ġattic": 3709,
      "Ġafterno": 3710,
      "Ġstarts": 3711,
      "Ġallig": 3712,
      "stic": 3713,
      "Ġrestless": 3714,
      "Ġquar": 3715,
      "Ġspir": 3716,
      "Ġbattery": 3717,
      "Ġpor": 3718,
      "orable": 3719,
      "Ġanyway": 3720,
      "Ġdess": 3721,
      "kers": 3722,
      "aked": 3723,
      "Ġsweetheart": 3724,
      "aff": 3725,
      "Ġribb": 3726,
      "Ġnuts": 3727,
      "Ġshoe": 3728,
      "Ġadorable": 3729,
      "aurant": 3730,
      "Ġdisgusting": 3731,
      "Ġshouts": 3732,
      "Ġvine": 3733,
      "Ġrestaurant": 3734,
      "Ġpants": 3735,
      "Ġfearful": 3736,
      "Ġhuman": 3737,
      "grandma": 3738,
      "little": 3739,
      "Ġtray": 3740,
      "Ġscrew": 3741,
      "Ġten": 3742,
      "Ġostrich": 3743,
      "Ġenvious": 3744,
      "Ġcards": 3745,
      "Ġmatt": 3746,
      "lu": 3747,
      "opter": 3748,
      "Ġdistant": 3749,
      "icopter": 3750,
      "iastic": 3751,
      "Ġfilthy": 3752,
      "Ġcap": 3753,
      "Ġafternoon": 3754,
      "Ġgiggle": 3755,
      "Ġenthusiastic": 3756,
      "Ġhelicopter": 3757,
      "Ġexper": 3758,
      "Ġmonkeys": 3759,
      "Ġhook": 3760,
      "Ġtrumpet": 3761,
      "night": 3762,
      "gging": 3763,
      "Ġsock": 3764,
      "Ġcooked": 3765,
      "Ġsoar": 3766,
      "Ġquack": 3767,
      "Ġants": 3768,
      "Ġbrownie": 3769,
      "ime": 3770,
      "Ġpoem": 3771,
      "Ġsandbox": 3772,
      "aroo": 3773,
      "angaroo": 3774,
      "par": 3775,
      "Ġlee": 3776,
      "Ġnowhere": 3777,
      "Ġlistening": 3778,
      "Ġadmire": 3779,
      "Ġpaws": 3780,
      "Ġscooter": 3781,
      "Ġharsh": 3782,
      "Ġmeas": 3783,
      "Ġexplain": 3784,
      "Ġbelt": 3785,
      "Ġspirit": 3786,
      "Ġpipe": 3787,
      "Ġbackpack": 3788,
      "stairs": 3789,
      "Ġbatht": 3790,
      "Ġkangaroo": 3791,
      "Ġcountry": 3792,
      "Ġsquash": 3793,
      "Ġviol": 3794,
      "Ġsent": 3795,
      "Ġleopard": 3796,
      "Ġlightning": 3797,
      "Ġunpack": 3798,
      "Ġspeak": 3799,
      "cycle": 3800,
      "Ġcows": 3801,
      "Ġrice": 3802,
      "opl": 3803,
      "eropl": 3804,
      "Ġmath": 3805,
      "Ġbathtub": 3806,
      "Ġspell": 3807,
      "Ġeveryday": 3808,
      "Ġaeropl": 3809,
      "Ġlid": 3810,
      "Ġbarking": 3811,
      "Ġcomet": 3812,
      "Ġquite": 3813,
      "Ġvol": 3814,
      "Ġrot": 3815,
      "Ġrepair": 3816,
      "Ġfirework": 3817,
      "Ġgorilla": 3818,
      "Ġclos": 3819,
      "Ġhappier": 3820,
      "Ġsepar": 3821,
      "Ġbicycle": 3822,
      "play": 3823,
      "imi": 3824,
      "Ġbuddy": 3825,
      "Ġhall": 3826,
      "Ġcush": 3827,
      "Ġjellyfish": 3828,
      "Ġbreat": 3829,
      "Ġfle": 3830,
      "Ġmessage": 3831,
      "Ġstared": 3832,
      "Ġgrabs": 3833,
      "Ġmodest": 3834,
      "ĠdidnÃ¢": 3835,
      "Ġmule": 3836,
      "ĠdonÃ¢": 3837,
      "Ġalex": 3838,
      "Ġgiven": 3839,
      "Ġyogurt": 3840,
      "Ġjoey": 3841,
      "Ġfive": 3842,
      "Ġmeat": 3843,
      "Ġhippo": 3844,
      "Ġpanda": 3845,
      "Ġsort": 3846,
      "hood": 3847,
      "Ġimpro": 3848,
      "Ġur": 3849,
      "Ġsalt": 3850,
      "Ġoat": 3851,
      "Ġpapa": 3852,
      "jenny": 3853,
      "Ġpaid": 3854,
      "Ġfinds": 3855,
      "Ġdessert": 3856,
      "Ġcats": 3857,
      "Ġalligator": 3858,
      "year": 3859,
      "Ġbin": 3860,
      "Ġobser": 3861,
      "ges": 3862,
      "Ġhedge": 3863,
      "Ġpulls": 3864,
      "Ġwheat": 3865,
      "Ġviolin": 3866,
      "Ġcrumb": 3867,
      "Ġsplit": 3868,
      "Ġsophie": 3869,
      "Ġrescue": 3870,
      "Ġmelon": 3871,
      "ipping": 3872,
      "Ġpal": 3873,
      "Ġava": 3874,
      "Ġtax": 3875,
      "Ġtripped": 3876,
      "ci": 3877,
      "Ġsize": 3878,
      "everyone": 3879,
      "Ġpilot": 3880,
      "Ġholes": 3881,
      "Ġped": 3882,
      "Ġprov": 3883,
      "ded": 3884,
      "Ġcact": 3885,
      "ogn": 3886,
      "Ġhan": 3887,
      "Ġroared": 3888,
      "Ġswinging": 3889,
      "Ġshade": 3890,
      "Ġforgave": 3891,
      "Ġriding": 3892,
      "Ġpurse": 3893,
      "Ġpushing": 3894,
      "Ġrecogn": 3895,
      "daddy": 3896,
      "Ġbikes": 3897,
      "Ġsheet": 3898,
      "Ġinse": 3899,
      "Ġtriangle": 3900,
      "Ġorganize": 3901,
      "Ġbehave": 3902,
      "ophone": 3903,
      "Ġsle": 3904,
      "Ġstarting": 3905,
      "Ġraft": 3906,
      "Ġscold": 3907,
      "Ġhaircut": 3908,
      "Ġlions": 3909,
      "Ġenergy": 3910,
      "Åĵyou": 3911,
      "Ġbur": 3912,
      "Ġknot": 3913,
      "Ġbananas": 3914,
      "Ġsilver": 3915,
      "Ġwallet": 3916,
      "bul": 3917,
      "Ġeither": 3918,
      "Ġtweetie": 3919,
      "chy": 3920,
      "ucky": 3921,
      "Ġmild": 3922,
      "Ġbears": 3923,
      "Ġrod": 3924,
      "Ġfrowned": 3925,
      "Ġlear": 3926,
      "Ġcactus": 3927,
      "aled": 3928,
      "Ġvolcan": 3929,
      "Ġlearnt": 3930,
      "Ġtrains": 3931,
      "Ġporch": 3932,
      "Ġjokes": 3933,
      "seum": 3934,
      "Ġchalk": 3935,
      "Ġvolcano": 3936,
      "Ġpole": 3937,
      "Ġappre": 3938,
      "Ġboots": 3939,
      "ebook": 3940,
      "Ġnotebook": 3941,
      "Ġlend": 3942,
      "Ġended": 3943,
      "Ġsticker": 3944,
      "Ġmuseum": 3945,
      "ucked": 3946,
      "Ġrolling": 3947,
      "inde": 3948,
      "Ġtaxi": 3949,
      "Ġevening": 3950,
      "Ġpapers": 3951,
      "Ġappreci": 3952,
      "Ġtuna": 3953,
      "Ġpalace": 3954,
      "Ġref": 3955,
      "Ġstrawberry": 3956,
      "Ġchain": 3957,
      "Ġsweater": 3958,
      "Ġprun": 3959,
      "te": 3960,
      "Ġjudge": 3961,
      "Ġink": 3962,
      "Ġshakes": 3963,
      "Ġshopkeeper": 3964,
      "Ġsteak": 3965,
      "Ġbarrel": 3966,
      "Ġreinde": 3967,
      "fee": 3968,
      "Ġmicr": 3969,
      "Ġpad": 3970,
      "Ġhadn": 3971,
      "Ġneighbour": 3972,
      "Ġlaund": 3973,
      "iron": 3974,
      "Ġlu": 3975,
      "ffee": 3976,
      "icer": 3977,
      "Ġavoc": 3978,
      "inking": 3979,
      "Ġsprink": 3980,
      "iling": 3981,
      "Ġlaundry": 3982,
      "Ġsmells": 3983,
      "Ġalive": 3984,
      "ooped": 3985,
      "astic": 3986,
      "urch": 3987,
      "Ġclimbing": 3988,
      "Ġcel": 3989,
      "Ġcable": 3990,
      "Ġmagnet": 3991,
      "Ġjerry": 3992,
      "Ġtwink": 3993,
      "Ġbul": 3994,
      "Ġandy": 3995,
      "Ġtroph": 3996,
      "Ġclapping": 3997,
      "Ġsoftly": 3998,
      "Ġwhiskers": 3999,
      "Ġputting": 4000,
      "Ġtube": 4001,
      "Ġgoal": 4002,
      "Ġpushes": 4003,
      "Ġfalling": 4004,
      "Ġsailor": 4005,
      "Ġmicrophone": 4006,
      "Ġvisited": 4007,
      "Ġtricks": 4008,
      "bs": 4009,
      "Ġshield": 4010,
      "Ġchecked": 4011,
      "Ġpenguin": 4012,
      "Ġdrawings": 4013,
      "Ġhive": 4014,
      "Ġseeing": 4015,
      "Ġhen": 4016,
      "Ġcolours": 4017,
      "Ġleaned": 4018,
      "Ġairport": 4019,
      "Ġcoffee": 4020,
      "Ġshelter": 4021,
      "Ġzoomed": 4022,
      "Ġshovel": 4023,
      "Ġquarrel": 4024,
      "Ġreindeer": 4025,
      "Ġunlock": 4026,
      "Ġbelongs": 4027,
      "Ġsaus": 4028,
      "Ġimagine": 4029,
      "Ġpeek": 4030,
      "ah": 4031,
      "Ġrhin": 4032,
      "Ġinsist": 4033,
      "Ġambul": 4034,
      "ex": 4035,
      "Ġoy": 4036,
      "Ġdisplay": 4037,
      "squ": 4038,
      "Ġmarched": 4039,
      "cast": 4040,
      "Ġwinter": 4041,
      "ense": 4042,
      "Ġaeroplane": 4043,
      "Ġdive": 4044,
      "Ġgrapes": 4045,
      "Ġpolish": 4046,
      "Ġcord": 4047,
      "Ġcelery": 4048,
      "Ġpaul": 4049,
      "Ġdishes": 4050,
      "Ġyach": 4051,
      "Ġbarks": 4052,
      "Ġwool": 4053,
      "Ġplanet": 4054,
      "Ġfields": 4055,
      "right": 4056,
      "Ġfilm": 4057,
      "Ġsandcast": 4058,
      "Ġtrophy": 4059,
      "Ġambulance": 4060,
      "Ġdrops": 4061,
      "Ġsoil": 4062,
      "Ġloop": 4063,
      "Ġskill": 4064,
      "Ġart": 4065,
      "Ġapologized": 4066,
      "Ġhoping": 4067,
      "Ġelev": 4068,
      "Ġcostume": 4069,
      "Ġrubber": 4070,
      "Ġsince": 4071,
      "Ġonion": 4072,
      "Ġfisher": 4073,
      "ilable": 4074,
      "Ġfeelings": 4075,
      "Ġmen": 4076,
      "Ġunhappy": 4077,
      "Ġmarry": 4078,
      "Ġrever": 4079,
      "Ġsandy": 4080,
      "Ġmedal": 4081,
      "Ġstom": 4082,
      "anic": 4083,
      "Ġyacht": 4084,
      "Ġpage": 4085,
      "Ġshort": 4086,
      "ected": 4087,
      "Ġavailable": 4088,
      "Ġraining": 4089,
      "Ġjourn": 4090,
      "Ġeraser": 4091,
      "âĤ¬âĢľ": 4092,
      "Ġminute": 4093,
      "chanic": 4094,
      "Ġelevator": 4095
    },
    "merges": [
      [
        "Ġ",
        "t"
      ],
      [
        "h",
        "e"
      ],
      [
        "Ġ",
        "a"
      ],
      [
        "Ġ",
        "s"
      ],
      [
        "Ġt",
        "he"
      ],
      [
        "Ġ",
        "w"
      ],
      [
        "n",
        "d"
      ],
      [
        "e",
        "d"
      ],
      [
        "Ġ",
        "b"
      ],
      [
        "Ġa",
        "nd"
      ],
      [
        "Ġt",
        "o"
      ],
      [
        "i",
        "n"
      ],
      [
        "Ġ",
        "h"
      ],
      [
        "i",
        "t"
      ],
      [
        "Ġ",
        "he"
      ],
      [
        "Ġw",
        "a"
      ],
      [
        "r",
        "e"
      ],
      [
        "Ġ",
        "l"
      ],
      [
        "Ġ",
        "f"
      ],
      [
        "o",
        "u"
      ],
      [
        "Ġ",
        "m"
      ],
      [
        "o",
        "n"
      ],
      [
        "Ġ",
        "c"
      ],
      [
        "Ġ",
        "d"
      ],
      [
        "e",
        "r"
      ],
      [
        "Ġ",
        "p"
      ],
      [
        "Ġwa",
        "s"
      ],
      [
        "Ġs",
        "a"
      ],
      [
        "o",
        "m"
      ],
      [
        "i",
        "s"
      ],
      [
        "in",
        "g"
      ],
      [
        "a",
        "r"
      ],
      [
        "Ġ",
        "g"
      ],
      [
        "i",
        "l"
      ],
      [
        "Ġs",
        "he"
      ],
      [
        "i",
        "d"
      ],
      [
        "a",
        "y"
      ],
      [
        "Ġ",
        "it"
      ],
      [
        "a",
        "t"
      ],
      [
        "Ġ",
        "n"
      ],
      [
        "e",
        "n"
      ],
      [
        "Ġh",
        "a"
      ],
      [
        "a",
        "n"
      ],
      [
        "Ġthe",
        "y"
      ],
      [
        "o",
        "r"
      ],
      [
        "i",
        "m"
      ],
      [
        "Ġt",
        "h"
      ],
      [
        "Ġ",
        "o"
      ],
      [
        "l",
        "e"
      ],
      [
        "l",
        "l"
      ],
      [
        "Ġhe",
        "r"
      ],
      [
        "o",
        "t"
      ],
      [
        "i",
        "r"
      ],
      [
        "e",
        "t"
      ],
      [
        "Ġ",
        "y"
      ],
      [
        "e",
        "s"
      ],
      [
        "Ġ",
        "e"
      ],
      [
        "Ġ",
        "in"
      ],
      [
        "v",
        "er"
      ],
      [
        "o",
        "w"
      ],
      [
        "u",
        "t"
      ],
      [
        "Ġ",
        "on"
      ],
      [
        "c",
        "k"
      ],
      [
        "Ġy",
        "ou"
      ],
      [
        "Ġ",
        "u"
      ],
      [
        "l",
        "d"
      ],
      [
        "o",
        "o"
      ],
      [
        "Ġsa",
        "id"
      ],
      [
        "Ġ",
        "r"
      ],
      [
        "Ġb",
        "e"
      ],
      [
        "i",
        "g"
      ],
      [
        "Ġ",
        "\""
      ],
      [
        "il",
        "y"
      ],
      [
        "Ġs",
        "t"
      ],
      [
        "k",
        "e"
      ],
      [
        "c",
        "e"
      ],
      [
        "v",
        "e"
      ],
      [
        "p",
        "p"
      ],
      [
        "it",
        "h"
      ],
      [
        "Ġw",
        "ith"
      ],
      [
        "Ġs",
        "o"
      ],
      [
        "Ġt",
        "im"
      ],
      [
        "Ġh",
        "is"
      ],
      [
        "Ġo",
        "f"
      ],
      [
        "k",
        "ed"
      ],
      [
        "a",
        "m"
      ],
      [
        "r",
        "i"
      ],
      [
        "n",
        "t"
      ],
      [
        "Ġp",
        "l"
      ],
      [
        "a",
        "d"
      ],
      [
        "t",
        "he"
      ],
      [
        "Ġm",
        "om"
      ],
      [
        "ver",
        "y"
      ],
      [
        "Ġth",
        "at"
      ],
      [
        "Ġd",
        "ay"
      ],
      [
        "Ġw",
        "e"
      ],
      [
        "s",
        "t"
      ],
      [
        "Ġu",
        "p"
      ],
      [
        "Ġpl",
        "ay"
      ],
      [
        "Ġha",
        "d"
      ],
      [
        "Ġb",
        "ut"
      ],
      [
        "Ġl",
        "ily"
      ],
      [
        "Ġ",
        "j"
      ],
      [
        "Ġf",
        "or"
      ],
      [
        "u",
        "n"
      ],
      [
        "e",
        "l"
      ],
      [
        "ou",
        "ld"
      ],
      [
        "m",
        "y"
      ],
      [
        "'",
        "s"
      ],
      [
        "Ġl",
        "i"
      ],
      [
        "c",
        "h"
      ],
      [
        "en",
        "t"
      ],
      [
        "Ġha",
        "pp"
      ],
      [
        "Ġ",
        "i"
      ],
      [
        "Ġd",
        "o"
      ],
      [
        "Ġwa",
        "nt"
      ],
      [
        "Ġs",
        "h"
      ],
      [
        "it",
        "t"
      ],
      [
        "Ġa",
        "n"
      ],
      [
        "ou",
        "t"
      ],
      [
        "r",
        "a"
      ],
      [
        "Ġw",
        "h"
      ],
      [
        "e",
        "nd"
      ],
      [
        "Ġn",
        "ot"
      ],
      [
        "s",
        "e"
      ],
      [
        "l",
        "y"
      ],
      [
        "Ġ",
        "k"
      ],
      [
        "om",
        "e"
      ],
      [
        "Ġ",
        "very"
      ],
      [
        "Ġthe",
        "re"
      ],
      [
        "ou",
        "nd"
      ],
      [
        "Ġb",
        "a"
      ],
      [
        "itt",
        "le"
      ],
      [
        "Ġl",
        "ittle"
      ],
      [
        "Ġn",
        "e"
      ],
      [
        "Ġtim",
        "e"
      ],
      [
        "a",
        "l"
      ],
      [
        "Ġ",
        "Ċ"
      ],
      [
        "h",
        "t"
      ],
      [
        "Ġ",
        "re"
      ],
      [
        "Ġa",
        "s"
      ],
      [
        "Ġs",
        "m"
      ],
      [
        "Ġ",
        "is"
      ],
      [
        "Ġhapp",
        "y"
      ],
      [
        "Ġb",
        "ig"
      ],
      [
        "on",
        "e"
      ],
      [
        "Ġm",
        "a"
      ],
      [
        "Ġsa",
        "w"
      ],
      [
        "ri",
        "end"
      ],
      [
        "Ġf",
        "riend"
      ],
      [
        ".",
        "\""
      ],
      [
        "r",
        "y"
      ],
      [
        "id",
        "e"
      ],
      [
        "Ġb",
        "o"
      ],
      [
        "'",
        "t"
      ],
      [
        "Ġl",
        "oo"
      ],
      [
        "u",
        "g"
      ],
      [
        "!",
        "\""
      ],
      [
        "t",
        "er"
      ],
      [
        "v",
        "ed"
      ],
      [
        "he",
        "r"
      ],
      [
        "Ġwe",
        "re"
      ],
      [
        "Ġl",
        "o"
      ],
      [
        "o",
        "re"
      ],
      [
        "on",
        "ce"
      ],
      [
        "Ġs",
        "e"
      ],
      [
        "Ġg",
        "o"
      ],
      [
        "Ġs",
        "p"
      ],
      [
        "Ġto",
        "o"
      ],
      [
        "Ġh",
        "im"
      ],
      [
        "Ġon",
        "e"
      ],
      [
        "Ġc",
        "a"
      ],
      [
        "Ġa",
        "re"
      ],
      [
        "e",
        "c"
      ],
      [
        "ir",
        "l"
      ],
      [
        "ar",
        "d"
      ],
      [
        "Ġwant",
        "ed"
      ],
      [
        "il",
        "l"
      ],
      [
        "Ġg",
        "irl"
      ],
      [
        "Ġup",
        "on"
      ],
      [
        "Ġ",
        "out"
      ],
      [
        "Ġthe",
        "m"
      ],
      [
        "Ġa",
        "t"
      ],
      [
        "Ġthe",
        "ir"
      ],
      [
        "y",
        "s"
      ],
      [
        "Ġf",
        "r"
      ],
      [
        "u",
        "r"
      ],
      [
        "f",
        "u"
      ],
      [
        "w",
        "ay"
      ],
      [
        "i",
        "nd"
      ],
      [
        "Ġd",
        "id"
      ],
      [
        "Ġsm",
        "il"
      ],
      [
        "Ġc",
        "ould"
      ],
      [
        "he",
        "n"
      ],
      [
        "Ġc",
        "an"
      ],
      [
        "Ġha",
        "ve"
      ],
      [
        "ar",
        "t"
      ],
      [
        "a",
        "in"
      ],
      [
        "Ġe",
        "x"
      ],
      [
        "he",
        "d"
      ],
      [
        "Ġb",
        "en"
      ],
      [
        "Ġa",
        "ll"
      ],
      [
        "Ġa",
        "r"
      ],
      [
        "Ġw",
        "ent"
      ],
      [
        "l",
        "p"
      ],
      [
        "i",
        "c"
      ],
      [
        "Ġt",
        "a"
      ],
      [
        "fu",
        "l"
      ],
      [
        "oo",
        "d"
      ],
      [
        "?",
        "\""
      ],
      [
        "Ġfriend",
        "s"
      ],
      [
        "h",
        "ing"
      ],
      [
        "Ġhe",
        "lp"
      ],
      [
        "Ġn",
        "am"
      ],
      [
        "ig",
        "ht"
      ],
      [
        "Ġk",
        "n"
      ],
      [
        "u",
        "m"
      ],
      [
        "Ġto",
        "m"
      ],
      [
        "ar",
        "k"
      ],
      [
        "Ġba",
        "ck"
      ],
      [
        "Ġc",
        "l"
      ],
      [
        "Ġl",
        "e"
      ],
      [
        "Ġn",
        "o"
      ],
      [
        "Ġf",
        "un"
      ],
      [
        "a",
        "ll"
      ],
      [
        "Ġa",
        "l"
      ],
      [
        "Ġs",
        "c"
      ],
      [
        "Ġr",
        "o"
      ],
      [
        "Ġsmil",
        "ed"
      ],
      [
        "Ġnam",
        "ed"
      ],
      [
        "ou",
        "g"
      ],
      [
        "Ġfr",
        "om"
      ],
      [
        "Ġlo",
        "ved"
      ],
      [
        "s",
        "ide"
      ],
      [
        "Ġe",
        "very"
      ],
      [
        "Ġm",
        "an"
      ],
      [
        "el",
        "t"
      ],
      [
        "Ġas",
        "ked"
      ],
      [
        "Ġs",
        "ome"
      ],
      [
        "i",
        "ck"
      ],
      [
        "Ġli",
        "ke"
      ],
      [
        "o",
        "p"
      ],
      [
        "Ġf",
        "e"
      ],
      [
        "Ġthe",
        "n"
      ],
      [
        "Ġf",
        "elt"
      ],
      [
        "Ġse",
        "e"
      ],
      [
        "Ġm",
        "e"
      ],
      [
        "Ġloo",
        "ked"
      ],
      [
        "Ġb",
        "r"
      ],
      [
        "Ġar",
        "ound"
      ],
      [
        "Ġw",
        "hen"
      ],
      [
        "am",
        "e"
      ],
      [
        "om",
        "et"
      ],
      [
        "Ġwh",
        "at"
      ],
      [
        "Ġb",
        "ir"
      ],
      [
        "u",
        "re"
      ],
      [
        "Ġtim",
        "my"
      ],
      [
        "Ġw",
        "ould"
      ],
      [
        "g",
        "et"
      ],
      [
        "a",
        "s"
      ],
      [
        "Ġs",
        "omet"
      ],
      [
        "Ġst",
        "art"
      ],
      [
        "on",
        "g"
      ],
      [
        "Ġbo",
        "y"
      ],
      [
        "Ã",
        "¢"
      ],
      [
        "â",
        "Ĥ"
      ],
      [
        "âĤ",
        "¬"
      ],
      [
        "Ġf",
        "a"
      ],
      [
        "Ġbir",
        "d"
      ],
      [
        "Ġp",
        "r"
      ],
      [
        "d",
        "d"
      ],
      [
        "ing",
        "s"
      ],
      [
        "Ġw",
        "or"
      ],
      [
        "Ġa",
        "g"
      ],
      [
        "Ġma",
        "ke"
      ],
      [
        "ad",
        "e"
      ],
      [
        "k",
        "ing"
      ],
      [
        "i",
        "e"
      ],
      [
        ",",
        "\""
      ],
      [
        "ow",
        "n"
      ],
      [
        "l",
        "ily"
      ],
      [
        "Ġt",
        "re"
      ],
      [
        "Ġr",
        "an"
      ],
      [
        "get",
        "her"
      ],
      [
        "Ġa",
        "way"
      ],
      [
        "ar",
        "ed"
      ],
      [
        "Ġto",
        "gether"
      ],
      [
        "Ġsa",
        "ys"
      ],
      [
        "Ġstart",
        "ed"
      ],
      [
        "i",
        "ce"
      ],
      [
        "Ġl",
        "a"
      ],
      [
        "ou",
        "d"
      ],
      [
        "Ġc",
        "ar"
      ],
      [
        "Ġsomet",
        "hing"
      ],
      [
        "Ġm",
        "ade"
      ],
      [
        "Ġd",
        "ad"
      ],
      [
        "Ġf",
        "l"
      ],
      [
        "Ġc",
        "o"
      ],
      [
        "the",
        "r"
      ],
      [
        "it",
        "ed"
      ],
      [
        "Ġp",
        "ark"
      ],
      [
        "t",
        "h"
      ],
      [
        "Ġsa",
        "d"
      ],
      [
        "a",
        "ck"
      ],
      [
        "Ġo",
        "ther"
      ],
      [
        "Ġne",
        "w"
      ],
      [
        "Ġp",
        "ut"
      ],
      [
        "Ġex",
        "c"
      ],
      [
        "Ġc",
        "h"
      ],
      [
        "Ġs",
        "u"
      ],
      [
        "Ġh",
        "ug"
      ],
      [
        "b",
        "le"
      ],
      [
        "Ġm",
        "u"
      ],
      [
        "Ġag",
        "ain"
      ],
      [
        "s",
        "s"
      ],
      [
        "Ġg",
        "ood"
      ],
      [
        "e",
        "p"
      ],
      [
        "Ġh",
        "ome"
      ],
      [
        "Ġwh",
        "o"
      ],
      [
        "Ġmom",
        "my"
      ],
      [
        "oo",
        "k"
      ],
      [
        "Ġwa",
        "l"
      ],
      [
        "Ġf",
        "ound"
      ],
      [
        "ri",
        "ed"
      ],
      [
        "es",
        "t"
      ],
      [
        "Ġj",
        "o"
      ],
      [
        "pp",
        "ed"
      ],
      [
        "Ġd",
        "ec"
      ],
      [
        "q",
        "u"
      ],
      [
        "Ġg",
        "et"
      ],
      [
        "a",
        "ch"
      ],
      [
        "Ġplay",
        "ing"
      ],
      [
        "oug",
        "ht"
      ],
      [
        "p",
        "l"
      ],
      [
        "n",
        "a"
      ],
      [
        "Ġs",
        "w"
      ],
      [
        "ou",
        "s"
      ],
      [
        "Ġth",
        "ings"
      ],
      [
        "Ġexc",
        "ited"
      ],
      [
        "Ġb",
        "l"
      ],
      [
        "Ġg",
        "ra"
      ],
      [
        "Ġli",
        "ked"
      ],
      [
        "Ġg",
        "ot"
      ],
      [
        "u",
        "ck"
      ],
      [
        "g",
        "e"
      ],
      [
        "n",
        "y"
      ],
      [
        "Ġth",
        "an"
      ],
      [
        "Ġyou",
        "r"
      ],
      [
        "id",
        "ed"
      ],
      [
        "Ġdec",
        "ided"
      ],
      [
        "Ġc",
        "ame"
      ],
      [
        "is",
        "t"
      ],
      [
        "u",
        "st"
      ],
      [
        "Ġ",
        "v"
      ],
      [
        "Ġdo",
        "g"
      ],
      [
        "Ġsc",
        "ared"
      ],
      [
        "e",
        "ll"
      ],
      [
        "Ġd",
        "own"
      ],
      [
        "Ġf",
        "ind"
      ],
      [
        "ou",
        "se"
      ],
      [
        "Ġa",
        "b"
      ],
      [
        "Ġsa",
        "m"
      ],
      [
        "f",
        "e"
      ],
      [
        "Ġca",
        "re"
      ],
      [
        "Ġbe",
        "c"
      ],
      [
        "Ġfe",
        "el"
      ],
      [
        "Ġm",
        "y"
      ],
      [
        "Ġloo",
        "k"
      ],
      [
        "Ġg",
        "r"
      ],
      [
        "Ġw",
        "ill"
      ],
      [
        "ou",
        "r"
      ],
      [
        "Ġp",
        "o"
      ],
      [
        "an",
        "t"
      ],
      [
        "Ġ",
        "ke"
      ],
      [
        "the",
        "y"
      ],
      [
        "m",
        "a"
      ],
      [
        "Ġb",
        "u"
      ],
      [
        "a",
        "ve"
      ],
      [
        "ar",
        "n"
      ],
      [
        "nd",
        "er"
      ],
      [
        "all",
        "y"
      ],
      [
        "way",
        "s"
      ],
      [
        "es",
        "s"
      ],
      [
        "Ġdid",
        "n"
      ],
      [
        "Ġal",
        "ways"
      ],
      [
        "Ġab",
        "out"
      ],
      [
        "Ġtoo",
        "k"
      ],
      [
        "y",
        "es"
      ],
      [
        "Ġl",
        "ot"
      ],
      [
        "a",
        "re"
      ],
      [
        "Ġto",
        "ys"
      ],
      [
        "Ġkn",
        "e"
      ],
      [
        "er",
        "s"
      ],
      [
        "g",
        "ed"
      ],
      [
        "is",
        "e"
      ],
      [
        "b",
        "b"
      ],
      [
        "Ġout",
        "side"
      ],
      [
        "it",
        "e"
      ],
      [
        "Ġtre",
        "e"
      ],
      [
        "Ġth",
        "ought"
      ],
      [
        "Ġba",
        "ll"
      ],
      [
        "Ġh",
        "o"
      ],
      [
        "Ġm",
        "ore"
      ],
      [
        "ec",
        "i"
      ],
      [
        "en",
        "ed"
      ],
      [
        "c",
        "hed"
      ],
      [
        "t",
        "o"
      ],
      [
        "Ġo",
        "ld"
      ],
      [
        "Ġle",
        "arn"
      ],
      [
        "Ġth",
        "is"
      ],
      [
        "re",
        "t"
      ],
      [
        "Ġp",
        "u"
      ],
      [
        "Ġm",
        "o"
      ],
      [
        "Ġkn",
        "ow"
      ],
      [
        "Ġh",
        "ow"
      ],
      [
        "Ġt",
        "w"
      ],
      [
        "Ġc",
        "at"
      ],
      [
        "Ġs",
        "or"
      ],
      [
        "Ġta",
        "ke"
      ],
      [
        "Ġla",
        "ug"
      ],
      [
        "r",
        "o"
      ],
      [
        "Ġsp",
        "eci"
      ],
      [
        "Ġspeci",
        "al"
      ],
      [
        "Ġp",
        "e"
      ],
      [
        "Ġl",
        "et"
      ],
      [
        "dd",
        "en"
      ],
      [
        "Ġkne",
        "w"
      ],
      [
        "Ġma",
        "x"
      ],
      [
        "i",
        "ve"
      ],
      [
        "Ġin",
        "side"
      ],
      [
        "Ġan",
        "y"
      ],
      [
        "i",
        "a"
      ],
      [
        "dden",
        "ly"
      ],
      [
        "f",
        "ter"
      ],
      [
        "Ġto",
        "y"
      ],
      [
        "a",
        "p"
      ],
      [
        "s",
        "o"
      ],
      [
        "Ġsh",
        "ow"
      ],
      [
        "Ġt",
        "r"
      ],
      [
        "in",
        "k"
      ],
      [
        "Ġsor",
        "ry"
      ],
      [
        "b",
        "ut"
      ],
      [
        "Ġmu",
        "ch"
      ],
      [
        "Ġs",
        "l"
      ],
      [
        "Ġr",
        "un"
      ],
      [
        "is",
        "h"
      ],
      [
        "Ġ",
        "or"
      ],
      [
        "Ġha",
        "nd"
      ],
      [
        "Ġi",
        "f"
      ],
      [
        "a",
        "u"
      ],
      [
        "t",
        "om"
      ],
      [
        "Ġh",
        "ouse"
      ],
      [
        "v",
        "en"
      ],
      [
        "Ġs",
        "un"
      ],
      [
        "Ġo",
        "p"
      ],
      [
        "Ġs",
        "k"
      ],
      [
        "ll",
        "y"
      ],
      [
        "Ġcl",
        "o"
      ],
      [
        "Ġj",
        "ust"
      ],
      [
        "b",
        "y"
      ],
      [
        "Ġ",
        "qu"
      ],
      [
        "Ġin",
        "to"
      ],
      [
        "Ġt",
        "ried"
      ],
      [
        "Ġwa",
        "ter"
      ],
      [
        "Ġ",
        "en"
      ],
      [
        "at",
        "e"
      ],
      [
        "Ġr",
        "a"
      ],
      [
        "Ġto",
        "ld"
      ],
      [
        "f",
        "t"
      ],
      [
        "Ġpr",
        "oud"
      ],
      [
        "Ġe",
        "ach"
      ],
      [
        "um",
        "p"
      ],
      [
        "Ġo",
        "ver"
      ],
      [
        "Ġcould",
        "n"
      ],
      [
        "Ġg",
        "ave"
      ],
      [
        "Ġhe",
        "ard"
      ],
      [
        "d",
        "y"
      ],
      [
        "Ġne",
        "ver"
      ],
      [
        "Ġsa",
        "ra"
      ],
      [
        "he",
        "re"
      ],
      [
        "Ġro",
        "om"
      ],
      [
        "Ġe",
        "at"
      ],
      [
        "t",
        "y"
      ],
      [
        "Ġex",
        "pl"
      ],
      [
        "ot",
        "her"
      ],
      [
        "Ġp",
        "ick"
      ],
      [
        "u",
        "e"
      ],
      [
        "Ġp",
        "ret"
      ],
      [
        "ll",
        "ed"
      ],
      [
        "Ġan",
        "na"
      ],
      [
        "au",
        "se"
      ],
      [
        "i",
        "on"
      ],
      [
        "m",
        "om"
      ],
      [
        "Ġplay",
        "ed"
      ],
      [
        "Ġg",
        "re"
      ],
      [
        "s",
        "ed"
      ],
      [
        "Ġhug",
        "ged"
      ],
      [
        "Ġwa",
        "t"
      ],
      [
        "j",
        "o"
      ],
      [
        "Ġof",
        "f"
      ],
      [
        "Ġbe",
        "ar"
      ],
      [
        "Ġc",
        "om"
      ],
      [
        "ot",
        "h"
      ],
      [
        "Ġn",
        "ice"
      ],
      [
        "Ġbo",
        "x"
      ],
      [
        "Ġne",
        "ed"
      ],
      [
        "Ġbec",
        "ause"
      ],
      [
        "Ġf",
        "o"
      ],
      [
        "'",
        "m"
      ],
      [
        "Ġst",
        "r"
      ],
      [
        "Ġman",
        "y"
      ],
      [
        "il",
        "e"
      ],
      [
        "Ġb",
        "et"
      ],
      [
        "w",
        "h"
      ],
      [
        "Ġj",
        "ack"
      ],
      [
        "Ġd",
        "on"
      ],
      [
        "Ġsm",
        "all"
      ],
      [
        "v",
        "ing"
      ],
      [
        "Ġl",
        "ong"
      ],
      [
        "k",
        "es"
      ],
      [
        "in",
        "e"
      ],
      [
        "g",
        "ry"
      ],
      [
        "im",
        "al"
      ],
      [
        "Ġan",
        "imal"
      ],
      [
        "c",
        "t"
      ],
      [
        "an",
        "k"
      ],
      [
        "or",
        "t"
      ],
      [
        "Ġe",
        "nd"
      ],
      [
        "Ġt",
        "ry"
      ],
      [
        "oug",
        "h"
      ],
      [
        "Ġu",
        "nt"
      ],
      [
        "c",
        "y"
      ],
      [
        "Ġn",
        "ow"
      ],
      [
        "Ġc",
        "ome"
      ],
      [
        "il",
        "d"
      ],
      [
        "i",
        "z"
      ],
      [
        "Ġunt",
        "il"
      ],
      [
        "ur",
        "t"
      ],
      [
        "Ġe",
        "ven"
      ],
      [
        "el",
        "f"
      ],
      [
        "Ġc",
        "le"
      ],
      [
        "Ġ",
        "im"
      ],
      [
        "Ġk",
        "ind"
      ],
      [
        "Ġlo",
        "ve"
      ],
      [
        "Ġlearn",
        "ed"
      ],
      [
        "Ġbe",
        "a"
      ],
      [
        "Ġbet",
        "ter"
      ],
      [
        "Ġfl",
        "ow"
      ],
      [
        "Ġa",
        "d"
      ],
      [
        "le",
        "t"
      ],
      [
        "Ġb",
        "est"
      ],
      [
        "v",
        "ent"
      ],
      [
        "Ġf",
        "in"
      ],
      [
        "ad",
        "y"
      ],
      [
        "ur",
        "p"
      ],
      [
        "ar",
        "s"
      ],
      [
        "Ġsa",
        "y"
      ],
      [
        "Ġevery",
        "one"
      ],
      [
        "ur",
        "n"
      ],
      [
        "re",
        "am"
      ],
      [
        "Ġt",
        "e"
      ],
      [
        "a",
        "ce"
      ],
      [
        "Ġco",
        "l"
      ],
      [
        "Ġm",
        "ia"
      ],
      [
        "p",
        "t"
      ],
      [
        "v",
        "es"
      ],
      [
        "Ġc",
        "u"
      ],
      [
        "b",
        "e"
      ],
      [
        "Å",
        "ĵ"
      ],
      [
        "Ġb",
        "y"
      ],
      [
        "ard",
        "en"
      ],
      [
        "Ġg",
        "arden"
      ],
      [
        "Ġfa",
        "st"
      ],
      [
        "Ġf",
        "i"
      ],
      [
        "b",
        "er"
      ],
      [
        "Ġcare",
        "ful"
      ],
      [
        "Ġbea",
        "ut"
      ],
      [
        "Ġc",
        "he"
      ],
      [
        "Ġa",
        "fter"
      ],
      [
        "Ġb",
        "ra"
      ],
      [
        "i",
        "es"
      ],
      [
        "Ġthan",
        "ked"
      ],
      [
        "Ġsk",
        "y"
      ],
      [
        "Ġlaug",
        "hed"
      ],
      [
        "Ġj",
        "ump"
      ],
      [
        "Ġg",
        "l"
      ],
      [
        "Ġsp",
        "ot"
      ],
      [
        "Ġso",
        "on"
      ],
      [
        "Ġl",
        "oud"
      ],
      [
        "Ġs",
        "n"
      ],
      [
        "in",
        "y"
      ],
      [
        "a",
        "nd"
      ],
      [
        "e",
        "m"
      ],
      [
        "Ġl",
        "ist"
      ],
      [
        "w",
        "n"
      ],
      [
        "Ġh",
        "ard"
      ],
      [
        "Ġbeaut",
        "i"
      ],
      [
        "Ġw",
        "o"
      ],
      [
        "le",
        "w"
      ],
      [
        "Ġlot",
        "s"
      ],
      [
        "Ġbeauti",
        "ful"
      ],
      [
        "s",
        "elf"
      ],
      [
        "Ġst",
        "ill"
      ],
      [
        "Ġu",
        "nder"
      ],
      [
        "Ġanimal",
        "s"
      ],
      [
        "Ġf",
        "am"
      ],
      [
        "Ġ",
        "Ã¢"
      ],
      [
        "h",
        "n"
      ],
      [
        "Ġh",
        "urt"
      ],
      [
        "Ġst",
        "ay"
      ],
      [
        "t",
        "im"
      ],
      [
        "i",
        "f"
      ],
      [
        "n",
        "ing"
      ],
      [
        "s",
        "h"
      ],
      [
        "Ġb",
        "oth"
      ],
      [
        "y",
        "ou"
      ],
      [
        "Ġwa",
        "y"
      ],
      [
        "Ġsa",
        "fe"
      ],
      [
        "he",
        "s"
      ],
      [
        "Ġtw",
        "o"
      ],
      [
        "oo",
        "l"
      ],
      [
        "Ġd",
        "an"
      ],
      [
        "a",
        "se"
      ],
      [
        "Ġre",
        "m"
      ],
      [
        "Ġb",
        "ad"
      ],
      [
        "re",
        "e"
      ],
      [
        "Ġit",
        "s"
      ],
      [
        "Ġb",
        "ook"
      ],
      [
        "Ġr",
        "ed"
      ],
      [
        "Ġim",
        "p"
      ],
      [
        "k",
        "ay"
      ],
      [
        "an",
        "e"
      ],
      [
        "op",
        "le"
      ],
      [
        "Ġli",
        "ved"
      ],
      [
        "Ġpe",
        "ople"
      ],
      [
        "u",
        "cy"
      ],
      [
        "Ġsu",
        "ddenly"
      ],
      [
        "Ġwal",
        "ked"
      ],
      [
        "Ġbra",
        "ve"
      ],
      [
        "Ġsh",
        "ould"
      ],
      [
        "urp",
        "r"
      ],
      [
        "o",
        "ck"
      ],
      [
        "Ġs",
        "urpr"
      ],
      [
        "is",
        "hed"
      ],
      [
        "Ġan",
        "gry"
      ],
      [
        "i",
        "p"
      ],
      [
        "Ġfam",
        "ily"
      ],
      [
        "re",
        "ss"
      ],
      [
        "w",
        "hen"
      ],
      [
        "ig",
        "h"
      ],
      [
        "Ġcle",
        "an"
      ],
      [
        "Ġf",
        "lew"
      ],
      [
        "n",
        "o"
      ],
      [
        "Ġca",
        "lled"
      ],
      [
        "Ġst",
        "or"
      ],
      [
        "l",
        "ed"
      ],
      [
        "Ġke",
        "pt"
      ],
      [
        "Ġf",
        "ore"
      ],
      [
        "f",
        "ore"
      ],
      [
        "g",
        "er"
      ],
      [
        "Ġsh",
        "are"
      ],
      [
        "s",
        "u"
      ],
      [
        "Ġf",
        "ly"
      ],
      [
        "x",
        "t"
      ],
      [
        "is",
        "ed"
      ],
      [
        "dd",
        "ed"
      ],
      [
        "Ġp",
        "ic"
      ],
      [
        "Ġgo",
        "ing"
      ],
      [
        "âĤ¬",
        "â"
      ],
      [
        "Ġdo",
        "or"
      ],
      [
        "Ġke",
        "ep"
      ],
      [
        "Ġbe",
        "fore"
      ],
      [
        "Ġro",
        "ck"
      ],
      [
        "Ġpret",
        "ty"
      ],
      [
        "Ġd",
        "ra"
      ],
      [
        "Ġad",
        "vent"
      ],
      [
        "ar",
        "y"
      ],
      [
        "um",
        "my"
      ],
      [
        "Ġno",
        "ise"
      ],
      [
        "wh",
        "at"
      ],
      [
        "Ġf",
        "ar"
      ],
      [
        "Ġsh",
        "iny"
      ],
      [
        "Ġop",
        "ened"
      ],
      [
        "Ġc",
        "on"
      ],
      [
        "Ġw",
        "ind"
      ],
      [
        "Ġdo",
        "ll"
      ],
      [
        "Ġc",
        "ry"
      ],
      [
        "Ġexpl",
        "ore"
      ],
      [
        "Ġ",
        "ide"
      ],
      [
        "b",
        "en"
      ],
      [
        "i",
        "ed"
      ],
      [
        "ec",
        "t"
      ],
      [
        "Ġre",
        "al"
      ],
      [
        "il",
        "ly"
      ],
      [
        "Ġst",
        "o"
      ],
      [
        "Ġwh",
        "ile"
      ],
      [
        "Ġt",
        "urn"
      ],
      [
        "Ġu",
        "n"
      ],
      [
        "Ġgr",
        "ound"
      ],
      [
        "le",
        "s"
      ],
      [
        "Ġal",
        "so"
      ],
      [
        "Ġne",
        "xt"
      ],
      [
        "Ħ",
        "¢"
      ],
      [
        "âĤ¬â",
        "Ħ¢"
      ],
      [
        "th",
        "at"
      ],
      [
        "Ġide",
        "a"
      ],
      [
        "w",
        "e"
      ],
      [
        "Ġno",
        "dded"
      ],
      [
        "Ġcol",
        "or"
      ],
      [
        "Ġwa",
        "r"
      ],
      [
        "s",
        "er"
      ],
      [
        "Ġg",
        "ive"
      ],
      [
        "Ġfeel",
        "ing"
      ],
      [
        "ar",
        "a"
      ],
      [
        "Ġpick",
        "ed"
      ],
      [
        "im",
        "b"
      ],
      [
        "t",
        "hing"
      ],
      [
        "Ġwal",
        "king"
      ],
      [
        "Ġl",
        "ucy"
      ],
      [
        "Ġbl",
        "ue"
      ],
      [
        "Ġcl",
        "imb"
      ],
      [
        "Ġha",
        "s"
      ],
      [
        "Ġth",
        "r"
      ],
      [
        "b",
        "o"
      ],
      [
        "th",
        "ank"
      ],
      [
        "Ġb",
        "ed"
      ],
      [
        "Ġadvent",
        "ure"
      ],
      [
        "Ġsmil",
        "e"
      ],
      [
        "Ġgra",
        "nd"
      ],
      [
        "Ġbe",
        "ing"
      ],
      [
        "a",
        "k"
      ],
      [
        "ay",
        "be"
      ],
      [
        "ic",
        "ed"
      ],
      [
        "i",
        "ous"
      ],
      [
        "Ġd",
        "if"
      ],
      [
        "Ġw",
        "r"
      ],
      [
        "t",
        "ure"
      ],
      [
        "jo",
        "y"
      ],
      [
        "e",
        "et"
      ],
      [
        "Ġf",
        "ood"
      ],
      [
        "Ġth",
        "ink"
      ],
      [
        "Ġpic",
        "ture"
      ],
      [
        "Ġwa",
        "it"
      ],
      [
        "Ġloo",
        "king"
      ],
      [
        "s",
        "he"
      ],
      [
        "Ġd",
        "el"
      ],
      [
        "Ġlist",
        "en"
      ],
      [
        "Ġt",
        "ra"
      ],
      [
        "Ġtr",
        "uck"
      ],
      [
        "f",
        "f"
      ],
      [
        "ug",
        "ht"
      ],
      [
        "Ġto",
        "w"
      ],
      [
        "Ġbr",
        "o"
      ],
      [
        "Ġe",
        "yes"
      ],
      [
        "Ġsto",
        "pped"
      ],
      [
        "Ġre",
        "pl"
      ],
      [
        "Ġg",
        "i"
      ],
      [
        "Ġb",
        "re"
      ],
      [
        "t",
        "ing"
      ],
      [
        "Ġv",
        "o"
      ],
      [
        "Ġrem",
        "em"
      ],
      [
        "Ġo",
        "wn"
      ],
      [
        "Ġwal",
        "k"
      ],
      [
        "by",
        "e"
      ],
      [
        "Ġgre",
        "at"
      ],
      [
        "Ġwo",
        "nder"
      ],
      [
        "Ġen",
        "joy"
      ],
      [
        "Ġne",
        "ar"
      ],
      [
        "Ġhand",
        "s"
      ],
      [
        "Ġr",
        "u"
      ],
      [
        "su",
        "ddenly"
      ],
      [
        "Ġe",
        "ver"
      ],
      [
        "Ġsh",
        "out"
      ],
      [
        "Ġd",
        "e"
      ],
      [
        "Ġhe",
        "ad"
      ],
      [
        "Ġimp",
        "ort"
      ],
      [
        "o",
        "g"
      ],
      [
        "Ġflow",
        "ers"
      ],
      [
        "Ġqu",
        "ick"
      ],
      [
        "Ġfore",
        "st"
      ],
      [
        "Ġnot",
        "iced"
      ],
      [
        "bb",
        "it"
      ],
      [
        "Ġa",
        "pp"
      ],
      [
        "Ġremem",
        "ber"
      ],
      [
        "iz",
        "ed"
      ],
      [
        "Ġd",
        "is"
      ],
      [
        "ir",
        "st"
      ],
      [
        "Ġw",
        "here"
      ],
      [
        "t",
        "ed"
      ],
      [
        "Ġra",
        "bbit"
      ],
      [
        "Ġf",
        "ish"
      ],
      [
        "ll",
        "ow"
      ],
      [
        "Ġwat",
        "ch"
      ],
      [
        "a",
        "c"
      ],
      [
        "Ġimport",
        "ant"
      ],
      [
        "Ġ",
        "z"
      ],
      [
        "Ġt",
        "al"
      ],
      [
        "Ġs",
        "ound"
      ],
      [
        "Ġa",
        "ma"
      ],
      [
        "Ġa",
        "c"
      ],
      [
        "Ġr",
        "ain"
      ],
      [
        "Ġsl",
        "ide"
      ],
      [
        "Ġwor",
        "k"
      ],
      [
        "Ġrepl",
        "ied"
      ],
      [
        "Ġo",
        "kay"
      ],
      [
        "Ġama",
        "z"
      ],
      [
        "le",
        "ase"
      ],
      [
        "d",
        "ay"
      ],
      [
        "Ġshow",
        "ed"
      ],
      [
        "Ġs",
        "qu"
      ],
      [
        "Ġto",
        "u"
      ],
      [
        "g",
        "an"
      ],
      [
        "a",
        "ge"
      ],
      [
        "Ġfo",
        "llow"
      ],
      [
        "Ġme",
        "an"
      ],
      [
        "fe",
        "re"
      ],
      [
        "Ġr",
        "ight"
      ],
      [
        "Ġas",
        "k"
      ],
      [
        "Ġb",
        "un"
      ],
      [
        "bb",
        "ed"
      ],
      [
        "Ġdif",
        "fere"
      ],
      [
        "Ġa",
        "m"
      ],
      [
        "Ġy",
        "e"
      ],
      [
        "Ġbr",
        "ight"
      ],
      [
        "Ġthan",
        "k"
      ],
      [
        "Ġwat",
        "ched"
      ],
      [
        "Ġd",
        "a"
      ],
      [
        "Ġstr",
        "ong"
      ],
      [
        "il",
        "a"
      ],
      [
        "Ġe",
        "m"
      ],
      [
        "an",
        "na"
      ],
      [
        "Ġu",
        "se"
      ],
      [
        "Ġst",
        "ick"
      ],
      [
        "Ġ",
        "our"
      ],
      [
        "Ġu",
        "s"
      ],
      [
        "Ġm",
        "or"
      ],
      [
        "Ġhe",
        "re"
      ],
      [
        "Ġh",
        "op"
      ],
      [
        "Ġs",
        "ure"
      ],
      [
        "Ġbe",
        "en"
      ],
      [
        "Ġquick",
        "ly"
      ],
      [
        "Ġvo",
        "ice"
      ],
      [
        "Ġma",
        "g"
      ],
      [
        "er",
        "ed"
      ],
      [
        "at",
        "h"
      ],
      [
        "Ġy",
        "ell"
      ],
      [
        "Ġcu",
        "ri"
      ],
      [
        "Ġgood",
        "bye"
      ],
      [
        "Ġm",
        "um"
      ],
      [
        "Ġdiffere",
        "nt"
      ],
      [
        "Ġch",
        "ild"
      ],
      [
        "Ġbo",
        "at"
      ],
      [
        "c",
        "an"
      ],
      [
        "ll",
        "o"
      ],
      [
        "c",
        "o"
      ],
      [
        "Ġsu",
        "e"
      ],
      [
        "Ġbec",
        "ame"
      ],
      [
        "Ġpl",
        "ace"
      ],
      [
        "Ġfa",
        "ce"
      ],
      [
        "an",
        "ge"
      ],
      [
        "l",
        "ook"
      ],
      [
        "Ġh",
        "igh"
      ],
      [
        "n",
        "g"
      ],
      [
        "Ġdo",
        "es"
      ],
      [
        "w",
        "here"
      ],
      [
        "Ġst",
        "ore"
      ],
      [
        "Ġclo",
        "ser"
      ],
      [
        "Ġwar",
        "m"
      ],
      [
        "as",
        "s"
      ],
      [
        "Ġd",
        "ress"
      ],
      [
        "s",
        "ara"
      ],
      [
        "Ġcuri",
        "ous"
      ],
      [
        "Ġbe",
        "l"
      ],
      [
        "Ġfl",
        "o"
      ],
      [
        "Ġc",
        "ook"
      ],
      [
        "Ġf",
        "irst"
      ],
      [
        "Ġt",
        "ell"
      ],
      [
        "Ġfor",
        "g"
      ],
      [
        "Ġwh",
        "y"
      ],
      [
        "o",
        "on"
      ],
      [
        "Ġfa",
        "v"
      ],
      [
        "Ġth",
        "ree"
      ],
      [
        "Ġsa",
        "nd"
      ],
      [
        "ou",
        "nt"
      ],
      [
        "Ġdad",
        "dy"
      ],
      [
        "a",
        "ble"
      ],
      [
        "le",
        "ep"
      ],
      [
        "Ġop",
        "en"
      ],
      [
        "Ġn",
        "ight"
      ],
      [
        "u",
        "ll"
      ],
      [
        "Ġca",
        "ke"
      ],
      [
        "m",
        "ore"
      ],
      [
        "Ġbl",
        "ock"
      ],
      [
        "it",
        "c"
      ],
      [
        "Ġany",
        "more"
      ],
      [
        "or",
        "n"
      ],
      [
        "is",
        "s"
      ],
      [
        "a",
        "g"
      ],
      [
        "Ġbut",
        "ter"
      ],
      [
        "a",
        "ched"
      ],
      [
        "ir",
        "ed"
      ],
      [
        "Ġle",
        "a"
      ],
      [
        "Ġbun",
        "ny"
      ],
      [
        "Ġon",
        "ly"
      ],
      [
        "Ġsw",
        "eet"
      ],
      [
        "Ġm",
        "on"
      ],
      [
        "Ġk",
        "id"
      ],
      [
        "Ġp",
        "ain"
      ],
      [
        "Ġgra",
        "bbed"
      ],
      [
        "Ġjo",
        "hn"
      ],
      [
        "Ġst",
        "op"
      ],
      [
        "is",
        "y"
      ],
      [
        "Ġfe",
        "ll"
      ],
      [
        "Ġd",
        "uck"
      ],
      [
        "Ġc",
        "r"
      ],
      [
        "Ġbird",
        "s"
      ],
      [
        "Ġcon",
        "t"
      ],
      [
        "Ġb",
        "it"
      ],
      [
        "itc",
        "hen"
      ],
      [
        "Ġk",
        "itchen"
      ],
      [
        "Ġbo",
        "b"
      ],
      [
        "Ġjump",
        "ed"
      ],
      [
        "Ġfi",
        "re"
      ],
      [
        "Ġgl",
        "ad"
      ],
      [
        "Ġp",
        "er"
      ],
      [
        "Ġhelp",
        "ed"
      ],
      [
        "Ġse",
        "es"
      ],
      [
        "Ġc",
        "ra"
      ],
      [
        "Ġgrand",
        "ma"
      ],
      [
        "Ġsara",
        "h"
      ],
      [
        "Ġd",
        "r"
      ],
      [
        "Ġp",
        "ap"
      ],
      [
        "Ġs",
        "ing"
      ],
      [
        "Ġhapp",
        "ened"
      ],
      [
        "Ġgra",
        "ss"
      ],
      [
        "Ġfin",
        "ally"
      ],
      [
        "Ġpr",
        "in"
      ],
      [
        "a",
        "ir"
      ],
      [
        "Ġt",
        "ri"
      ],
      [
        "Ġshout",
        "ed"
      ],
      [
        "Ġstor",
        "y"
      ],
      [
        "Ġbe",
        "h"
      ],
      [
        "nt",
        "s"
      ],
      [
        "a",
        "fter"
      ],
      [
        "Ġj",
        "ane"
      ],
      [
        "Ġbr",
        "other"
      ],
      [
        "Ġy",
        "ummy"
      ],
      [
        "Ġre",
        "ached"
      ],
      [
        "Ġreal",
        "ized"
      ],
      [
        "Ġl",
        "ady"
      ],
      [
        "a",
        "st"
      ],
      [
        "Ġha",
        "ving"
      ],
      [
        "Ġp",
        "lease"
      ],
      [
        "in",
        "s"
      ],
      [
        "Ġfav",
        "or"
      ],
      [
        "'",
        "re"
      ],
      [
        "Ġm",
        "ess"
      ],
      [
        "Ġre",
        "st"
      ],
      [
        "Ġthr",
        "ough"
      ],
      [
        "pp",
        "y"
      ],
      [
        "Ġfavor",
        "ite"
      ],
      [
        "Ġdra",
        "w"
      ],
      [
        "Ġc",
        "re"
      ],
      [
        "Ġh",
        "at"
      ],
      [
        "Ġst",
        "e"
      ],
      [
        "Ġg",
        "ame"
      ],
      [
        "Ġso",
        "ft"
      ],
      [
        "Ġat",
        "e"
      ],
      [
        "Ġl",
        "ess"
      ],
      [
        "Ġunder",
        "st"
      ],
      [
        "Ġre",
        "ady"
      ],
      [
        "z",
        "y"
      ],
      [
        "Ġp",
        "are"
      ],
      [
        "Ġp",
        "et"
      ],
      [
        "Ġth",
        "ing"
      ],
      [
        "Ġre",
        "ally"
      ],
      [
        "im",
        "es"
      ],
      [
        "<",
        "|"
      ],
      [
        "|",
        ">"
      ],
      [
        "at",
        "her"
      ],
      [
        "mom",
        "my"
      ],
      [
        "Ġbe",
        "gan"
      ],
      [
        "Ġpret",
        "end"
      ],
      [
        "Ġwor",
        "ld"
      ],
      [
        "Ġmag",
        "ic"
      ],
      [
        "Ġjo",
        "e"
      ],
      [
        "k",
        "en"
      ],
      [
        "Ġlook",
        "s"
      ],
      [
        "st",
        "er"
      ],
      [
        "Ġhim",
        "self"
      ],
      [
        "fu",
        "lly"
      ],
      [
        "Ġbutter",
        "f"
      ],
      [
        "Ġd",
        "one"
      ],
      [
        "Ġma",
        "king"
      ],
      [
        "Ġc",
        "ut"
      ],
      [
        "Ġcom",
        "ing"
      ],
      [
        "Ġkid",
        "s"
      ],
      [
        "Ġm",
        "ouse"
      ],
      [
        "s",
        "p"
      ],
      [
        "Ġpo",
        "nd"
      ],
      [
        "Ġflo",
        "or"
      ],
      [
        "Ġwa",
        "ved"
      ],
      [
        "Ġpr",
        "om"
      ],
      [
        "Ġt",
        "ired"
      ],
      [
        "Ġfi",
        "x"
      ],
      [
        "Ġwor",
        "ry"
      ],
      [
        "Ġcar",
        "s"
      ],
      [
        "Ġp",
        "art"
      ],
      [
        "ig",
        "n"
      ],
      [
        "Ġdel",
        "ic"
      ],
      [
        "Ġf",
        "ill"
      ],
      [
        "Ġnam",
        "e"
      ],
      [
        "Ġflow",
        "er"
      ],
      [
        "el",
        "y"
      ],
      [
        "at",
        "er"
      ],
      [
        "w",
        "ow"
      ],
      [
        "Ġha",
        "ir"
      ],
      [
        "Ġtou",
        "ch"
      ],
      [
        "Ġm",
        "aybe"
      ],
      [
        "Ġfun",
        "ny"
      ],
      [
        "Ġcat",
        "ch"
      ],
      [
        "Ġho",
        "ld"
      ],
      [
        "Ġu",
        "sed"
      ],
      [
        "Ġan",
        "other"
      ],
      [
        "Ġsomet",
        "imes"
      ],
      [
        "Ġse",
        "en"
      ],
      [
        "Ġfar",
        "m"
      ],
      [
        "Ġta",
        "st"
      ],
      [
        "Ġto",
        "p"
      ],
      [
        "re",
        "l"
      ],
      [
        "i",
        "ent"
      ],
      [
        "Ġpare",
        "nts"
      ],
      [
        "one",
        "y"
      ],
      [
        "jo",
        "hn"
      ],
      [
        "Ġdo",
        "ing"
      ],
      [
        "Ġho",
        "pped"
      ],
      [
        "Ġc",
        "ried"
      ],
      [
        "i",
        "ver"
      ],
      [
        "Ġgre",
        "en"
      ],
      [
        "Ġblock",
        "s"
      ],
      [
        "Ġc",
        "ool"
      ],
      [
        "Ġl",
        "ight"
      ],
      [
        "\"",
        "."
      ],
      [
        "Ġsurpr",
        "ise"
      ],
      [
        "Ġd",
        "in"
      ],
      [
        "Ġt",
        "ed"
      ],
      [
        "Ġless",
        "on"
      ],
      [
        "Ġf",
        "ull"
      ],
      [
        "u",
        "l"
      ],
      [
        "Ġre",
        "ad"
      ],
      [
        "tim",
        "my"
      ],
      [
        "at",
        "ion"
      ],
      [
        "d",
        "on"
      ],
      [
        "Ġw",
        "ood"
      ],
      [
        "Ġd",
        "ri"
      ],
      [
        "Ġbeh",
        "ind"
      ],
      [
        "ard",
        "s"
      ],
      [
        "Ġtre",
        "es"
      ],
      [
        "Ġrun",
        "ning"
      ],
      [
        "Ġsn",
        "ow"
      ],
      [
        "Ġwor",
        "ked"
      ],
      [
        "Ġwind",
        "ow"
      ],
      [
        "Ġfr",
        "og"
      ],
      [
        "Ġd",
        "ark"
      ],
      [
        "Ġye",
        "ars"
      ],
      [
        "Ġd",
        "ro"
      ],
      [
        "Ġsa",
        "t"
      ],
      [
        "Ġb",
        "ow"
      ],
      [
        "Ġsl",
        "ow"
      ],
      [
        "Ġ",
        "-"
      ],
      [
        "Ġsm",
        "ell"
      ],
      [
        "Ġli",
        "kes"
      ],
      [
        "Ġyell",
        "ow"
      ],
      [
        "Ġpap",
        "er"
      ],
      [
        "Ġw",
        "ished"
      ],
      [
        "he",
        "llo"
      ],
      [
        "u",
        "ed"
      ],
      [
        "Ġsw",
        "im"
      ],
      [
        "Ġs",
        "leep"
      ],
      [
        "Ġba",
        "g"
      ],
      [
        "Ġhapp",
        "ily"
      ],
      [
        "c",
        "ome"
      ],
      [
        "Ġsh",
        "o"
      ],
      [
        "re",
        "n"
      ],
      [
        "s",
        "am"
      ],
      [
        "ar",
        "ing"
      ],
      [
        "Ġsurpr",
        "ised"
      ],
      [
        "Ġe",
        "l"
      ],
      [
        "Ġcare",
        "fully"
      ],
      [
        "Ġbutterf",
        "ly"
      ],
      [
        "Ġs",
        "et"
      ],
      [
        "Ġsw",
        "ing"
      ],
      [
        "f",
        "r"
      ],
      [
        "Ġlo",
        "st"
      ],
      [
        "Ġco",
        "ld"
      ],
      [
        "Ġi",
        "ce"
      ],
      [
        "Ġremember",
        "ed"
      ],
      [
        "Ġhe",
        "ld"
      ],
      [
        "Ġba",
        "by"
      ],
      [
        "Ġho",
        "le"
      ],
      [
        "re",
        "w"
      ],
      [
        "Ġp",
        "at"
      ],
      [
        "Ġlaug",
        "h"
      ],
      [
        "Ġneed",
        "ed"
      ],
      [
        "Ġper",
        "f"
      ],
      [
        "u",
        "ff"
      ],
      [
        "Ġbu",
        "y"
      ],
      [
        "Ġmo",
        "ve"
      ],
      [
        "on",
        "s"
      ],
      [
        "Ġle",
        "ft"
      ],
      [
        "Ġted",
        "dy"
      ],
      [
        "Ġany",
        "thing"
      ],
      [
        "Ġd",
        "ream"
      ],
      [
        "Ġfa",
        "ir"
      ],
      [
        "c",
        "ess"
      ],
      [
        "re",
        "ed"
      ],
      [
        "i",
        "ke"
      ],
      [
        "Ġwr",
        "ong"
      ],
      [
        "Ġenjoy",
        "ed"
      ],
      [
        "Ġda",
        "isy"
      ],
      [
        "Ġhe",
        "ar"
      ],
      [
        "Ġar",
        "ri"
      ],
      [
        "Ġa",
        "ir"
      ],
      [
        "Ġfollow",
        "ed"
      ],
      [
        "Ġta",
        "ble"
      ],
      [
        "Ġchild",
        "ren"
      ],
      [
        "Ġbu",
        "s"
      ],
      [
        "Ġd",
        "ir"
      ],
      [
        "Ġh",
        "un"
      ],
      [
        "Ġdelic",
        "ious"
      ],
      [
        "a",
        "ke"
      ],
      [
        "Ġfin",
        "ished"
      ],
      [
        "Ġfriend",
        "ly"
      ],
      [
        "Ġh",
        "ot"
      ],
      [
        "Ġcont",
        "in"
      ],
      [
        "Ġta",
        "ll"
      ],
      [
        "Ġsome",
        "one"
      ],
      [
        "Ġher",
        "self"
      ],
      [
        "en",
        "s"
      ],
      [
        "Ġclo",
        "se"
      ],
      [
        "Ġm",
        "at"
      ],
      [
        "d",
        "s"
      ],
      [
        "ro",
        "ss"
      ],
      [
        "Ġh",
        "ill"
      ],
      [
        "Ġunderst",
        "and"
      ],
      [
        "Ġy",
        "es"
      ],
      [
        "Ġh",
        "id"
      ],
      [
        "l",
        "f"
      ],
      [
        "in",
        "ed"
      ],
      [
        "Ġm",
        "ight"
      ],
      [
        "Ġm",
        "ar"
      ],
      [
        "Ġevery",
        "where"
      ],
      [
        "Ġarri",
        "ved"
      ],
      [
        "Ġca",
        "st"
      ],
      [
        "Ġb",
        "ug"
      ],
      [
        "Ġel",
        "se"
      ],
      [
        "Ġar",
        "m"
      ],
      [
        "Ġg",
        "ent"
      ],
      [
        "Ġwonder",
        "ful"
      ],
      [
        "Ġt",
        "ight"
      ],
      [
        "Ġforg",
        "ot"
      ],
      [
        "ie",
        "ld"
      ],
      [
        "p",
        "e"
      ],
      [
        "Ġre",
        "l"
      ],
      [
        "Ġsa",
        "lly"
      ],
      [
        "Ġcolor",
        "s"
      ],
      [
        "Ġsqu",
        "ir"
      ],
      [
        "s",
        "hed"
      ],
      [
        "Ġp",
        "ink"
      ],
      [
        "Ġbu",
        "ild"
      ],
      [
        "nd",
        "y"
      ],
      [
        "Ġbro",
        "ken"
      ],
      [
        "Ġg",
        "one"
      ],
      [
        "Ġa",
        "ble"
      ],
      [
        "n",
        "er"
      ],
      [
        "Ġg",
        "u"
      ],
      [
        "Ġben",
        "ny"
      ],
      [
        "Ġl",
        "ila"
      ],
      [
        "Ġs",
        "ong"
      ],
      [
        "the",
        "n"
      ],
      [
        "j",
        "ack"
      ],
      [
        "Ġfill",
        "ed"
      ],
      [
        "i",
        "ch"
      ],
      [
        "Ġbook",
        "s"
      ],
      [
        "Ġsquir",
        "rel"
      ],
      [
        "Ġag",
        "reed"
      ],
      [
        "Ġevery",
        "thing"
      ],
      [
        "Ġcontin",
        "ued"
      ],
      [
        "Ġcre",
        "at"
      ],
      [
        "Ġc",
        "ount"
      ],
      [
        "as",
        "ure"
      ],
      [
        "ro",
        "om"
      ],
      [
        "s",
        "k"
      ],
      [
        "s",
        "et"
      ],
      [
        "am",
        "a"
      ],
      [
        "'",
        "ll"
      ],
      [
        "Ġwant",
        "s"
      ],
      [
        "Ġli",
        "on"
      ],
      [
        "Ġlea",
        "ves"
      ],
      [
        "Ġen",
        "ough"
      ],
      [
        "c",
        "ed"
      ],
      [
        "Ġtom",
        "my"
      ],
      [
        "fr",
        "om"
      ],
      [
        "m",
        "o"
      ],
      [
        "Ġj",
        "u"
      ],
      [
        "Ġmor",
        "ning"
      ],
      [
        "Ġmom",
        "ent"
      ],
      [
        "Ġv",
        "is"
      ],
      [
        "Ġp",
        "i"
      ],
      [
        "Ġget",
        "ting"
      ],
      [
        "Ġcook",
        "ies"
      ],
      [
        "Ġf",
        "ight"
      ],
      [
        "Ġstay",
        "ed"
      ],
      [
        "Ġbre",
        "ak"
      ],
      [
        "a",
        "v"
      ],
      [
        "as",
        "h"
      ],
      [
        "Ġjo",
        "y"
      ],
      [
        "Ġsc",
        "ary"
      ],
      [
        "Ġpo",
        "in"
      ],
      [
        "Ġw",
        "et"
      ],
      [
        "Ġbe",
        "ach"
      ],
      [
        "an",
        "ce"
      ],
      [
        "Ġfe",
        "w"
      ],
      [
        "r",
        "ow"
      ],
      [
        "Ġm",
        "other"
      ],
      [
        "Ġf",
        "all"
      ],
      [
        "a",
        "pp"
      ],
      [
        "Ġdin",
        "ner"
      ],
      [
        "Ġturn",
        "ed"
      ],
      [
        "ri",
        "es"
      ],
      [
        "Ġhun",
        "gry"
      ],
      [
        "Ġsp",
        "ark"
      ],
      [
        "g",
        "on"
      ],
      [
        "Ġamaz",
        "ing"
      ],
      [
        "Ġc",
        "ream"
      ],
      [
        "Ġma",
        "kes"
      ],
      [
        "Ġtry",
        "ing"
      ],
      [
        "Ġperf",
        "ect"
      ],
      [
        "h",
        "is"
      ],
      [
        "o",
        "h"
      ],
      [
        "th",
        "is"
      ],
      [
        "Ġcast",
        "le"
      ],
      [
        "Ġother",
        "s"
      ],
      [
        "Ġf",
        "ur"
      ],
      [
        "Ġclimb",
        "ed"
      ],
      [
        "Ġcom",
        "p"
      ],
      [
        "ou",
        "p"
      ],
      [
        "Ġmu",
        "s"
      ],
      [
        "Ġpicture",
        "s"
      ],
      [
        "am",
        "p"
      ],
      [
        "Ġwh",
        "ite"
      ],
      [
        "Ġtal",
        "k"
      ],
      [
        "p",
        "h"
      ],
      [
        "Ġm",
        "et"
      ],
      [
        "Ġwa",
        "ll"
      ],
      [
        "m",
        "an"
      ],
      [
        "o",
        "om"
      ],
      [
        "Ġsp",
        "l"
      ],
      [
        "Ġlist",
        "ened"
      ],
      [
        "Ġsmil",
        "es"
      ],
      [
        "Ġball",
        "oon"
      ],
      [
        "Ġfo",
        "x"
      ],
      [
        "Ġcl",
        "ot"
      ],
      [
        "or",
        "ing"
      ],
      [
        "Ġpo",
        "l"
      ],
      [
        "Ġal",
        "one"
      ],
      [
        "Ġclot",
        "hes"
      ],
      [
        "Ġp",
        "en"
      ],
      [
        "Ġpu",
        "ppy"
      ],
      [
        "Ġbr",
        "own"
      ],
      [
        "Ġb",
        "illy"
      ],
      [
        "ct",
        "or"
      ],
      [
        "Ġta",
        "il"
      ],
      [
        "r",
        "ot"
      ],
      [
        "at",
        "ed"
      ],
      [
        "n",
        "e"
      ],
      [
        "en",
        "ce"
      ],
      [
        "Ġde",
        "ep"
      ],
      [
        "Ġle",
        "ave"
      ],
      [
        "u",
        "s"
      ],
      [
        "Ġwas",
        "n"
      ],
      [
        "Ġbr",
        "ought"
      ],
      [
        "Ġse",
        "ar"
      ],
      [
        "Ġstr",
        "ange"
      ],
      [
        "is",
        "ter"
      ],
      [
        "Ġs",
        "it"
      ],
      [
        "Ġgr",
        "ow"
      ],
      [
        "d",
        "er"
      ],
      [
        "Ġwood",
        "s"
      ],
      [
        "Ġpu",
        "lled"
      ],
      [
        "Ġsa",
        "il"
      ],
      [
        "l",
        "ing"
      ],
      [
        "Ġw",
        "on"
      ],
      [
        "Ġpl",
        "an"
      ],
      [
        "Ġp",
        "ie"
      ],
      [
        "Ġdan",
        "ger"
      ],
      [
        "Ġr",
        "ide"
      ],
      [
        "Ġask",
        "s"
      ],
      [
        "Ġtre",
        "at"
      ],
      [
        "Ġto",
        "day"
      ],
      [
        "Ġvis",
        "it"
      ],
      [
        "Ġa",
        "my"
      ],
      [
        "z",
        "z"
      ],
      [
        "uff",
        "y"
      ],
      [
        "Ġmus",
        "ic"
      ],
      [
        "a",
        "pped"
      ],
      [
        "m",
        "ed"
      ],
      [
        "Ġin",
        "t"
      ],
      [
        "Ġj",
        "en"
      ],
      [
        "Ġh",
        "ide"
      ],
      [
        "an",
        "g"
      ],
      [
        "Ġamaz",
        "ed"
      ],
      [
        "Ġwa",
        "ited"
      ],
      [
        "Ġtow",
        "ards"
      ],
      [
        "o",
        "k"
      ],
      [
        "Ġla",
        "nd"
      ],
      [
        "ma",
        "x"
      ],
      [
        "ow",
        "er"
      ],
      [
        "Ġp",
        "re"
      ],
      [
        "i",
        "et"
      ],
      [
        "Ġf",
        "ield"
      ],
      [
        "Ġo",
        "w"
      ],
      [
        "Ġfly",
        "ing"
      ],
      [
        "Ġs",
        "illy"
      ],
      [
        "Ġcl",
        "oud"
      ],
      [
        "Ġrun",
        "s"
      ],
      [
        "Ġsh",
        "ared"
      ],
      [
        "Ġjo",
        "b"
      ],
      [
        "ain",
        "ed"
      ],
      [
        "Ġqu",
        "iet"
      ],
      [
        "Ġown",
        "er"
      ],
      [
        "Ġli",
        "ving"
      ],
      [
        "e",
        "ver"
      ],
      [
        "g",
        "s"
      ],
      [
        "Ġbel",
        "ie"
      ],
      [
        "am",
        "es"
      ],
      [
        "Ġslow",
        "ly"
      ],
      [
        "Ġprom",
        "ised"
      ],
      [
        "Ġs",
        "ide"
      ],
      [
        "Ġmor",
        "al"
      ],
      [
        "or",
        "m"
      ],
      [
        "m",
        "aybe"
      ],
      [
        "Ġla",
        "ke"
      ],
      [
        "Ġthink",
        "s"
      ],
      [
        "ug",
        "g"
      ],
      [
        "ck",
        "et"
      ],
      [
        "Ġsh",
        "ap"
      ],
      [
        "Ġs",
        "ister"
      ],
      [
        "Ġpain",
        "t"
      ],
      [
        "Ġmu",
        "st"
      ],
      [
        "ig",
        "g"
      ],
      [
        "th",
        "y"
      ],
      [
        "Ġm",
        "oney"
      ],
      [
        "o",
        "kay"
      ],
      [
        "c",
        "le"
      ],
      [
        "Ġpart",
        "y"
      ],
      [
        "is",
        "es"
      ],
      [
        "Ġra",
        "ce"
      ],
      [
        "Ġch",
        "o"
      ],
      [
        "s",
        "w"
      ],
      [
        "Ġfl",
        "uffy"
      ],
      [
        "Ġwe",
        "l"
      ],
      [
        "Ġwe",
        "ar"
      ],
      [
        "Ġj",
        "e"
      ],
      [
        "Ġj",
        "im"
      ],
      [
        "av",
        "y"
      ],
      [
        "Ġwor",
        "ried"
      ],
      [
        "ec",
        "es"
      ],
      [
        "Ġpi",
        "eces"
      ],
      [
        "ke",
        "y"
      ],
      [
        "Ġan",
        "sw"
      ],
      [
        "Ġp",
        "ot"
      ],
      [
        "Ġfast",
        "er"
      ],
      [
        "as",
        "ed"
      ],
      [
        "Ġm",
        "ark"
      ],
      [
        "Ġcolor",
        "ful"
      ],
      [
        "Ġdan",
        "ce"
      ],
      [
        "Ġgr",
        "ate"
      ],
      [
        "Ġprin",
        "cess"
      ],
      [
        "Ġb",
        "ot"
      ],
      [
        "Ġbr",
        "an"
      ],
      [
        "s",
        "ure"
      ],
      [
        "Ġbro",
        "ke"
      ],
      [
        "Ġcu",
        "p"
      ],
      [
        "f",
        "ort"
      ],
      [
        "z",
        "e"
      ],
      [
        "Ġpr",
        "o"
      ],
      [
        "Ġgrate",
        "ful"
      ],
      [
        "Ġgi",
        "ft"
      ],
      [
        "Ġsu",
        "ch"
      ],
      [
        "Ġbig",
        "ger"
      ],
      [
        "Ġre",
        "ach"
      ],
      [
        "Ġw",
        "in"
      ],
      [
        "i",
        "x"
      ],
      [
        "Ġtra",
        "in"
      ],
      [
        "Ġpu",
        "ll"
      ],
      [
        "Ġsn",
        "ack"
      ],
      [
        "Ġmon",
        "ster"
      ],
      [
        "Ġca",
        "ndy"
      ],
      [
        "Ġbl",
        "ank"
      ],
      [
        "Ġn",
        "a"
      ],
      [
        "Ġe",
        "le"
      ],
      [
        "Ġbl",
        "ack"
      ],
      [
        "Ġ",
        "ve"
      ],
      [
        "wh",
        "y"
      ],
      [
        "Ġpl",
        "ant"
      ],
      [
        "Ġjo",
        "in"
      ],
      [
        "Ġfarm",
        "er"
      ],
      [
        "Ġb",
        "ar"
      ],
      [
        "Ġr",
        "iver"
      ],
      [
        "u",
        "ally"
      ],
      [
        "Ġst",
        "u"
      ],
      [
        "Ġca",
        "ll"
      ],
      [
        "Ġblank",
        "et"
      ],
      [
        "d",
        "e"
      ],
      [
        "Ġsc",
        "ream"
      ],
      [
        "Ġtre",
        "asure"
      ],
      [
        "Ġsm",
        "art"
      ],
      [
        "Ġmagic",
        "al"
      ],
      [
        "Ġdanger",
        "ous"
      ],
      [
        "Ġdra",
        "gon"
      ],
      [
        "le",
        "ss"
      ],
      [
        "Ġmo",
        "st"
      ],
      [
        "Ġp",
        "a"
      ],
      [
        "Ġb",
        "ike"
      ],
      [
        "Ġs",
        "ign"
      ],
      [
        "Ġhelp",
        "ing"
      ],
      [
        "Ġac",
        "ross"
      ],
      [
        "Ġl",
        "un"
      ],
      [
        "Ġn",
        "ap"
      ],
      [
        "ck",
        "ed"
      ],
      [
        "Ġin",
        "st"
      ],
      [
        "Ġs",
        "na"
      ],
      [
        "Ġbe",
        "e"
      ],
      [
        "h",
        "i"
      ],
      [
        "out",
        "h"
      ],
      [
        "i",
        "re"
      ],
      [
        "Ġm",
        "outh"
      ],
      [
        "Ġdis",
        "app"
      ],
      [
        "Ġsp",
        "r"
      ],
      [
        "ic",
        "y"
      ],
      [
        "Ġwor",
        "ds"
      ],
      [
        "Ġm",
        "in"
      ],
      [
        "i",
        "pped"
      ],
      [
        "st",
        "art"
      ],
      [
        "um",
        "b"
      ],
      [
        "Ġst",
        "re"
      ],
      [
        "or",
        "ed"
      ],
      [
        "Ġtow",
        "er"
      ],
      [
        "Ġdoll",
        "s"
      ],
      [
        "Ġdir",
        "ty"
      ],
      [
        "Ġac",
        "c"
      ],
      [
        "e",
        "ared"
      ],
      [
        "Ġhe",
        "avy"
      ],
      [
        "m",
        "ing"
      ],
      [
        "Ġth",
        "rew"
      ],
      [
        "Ġste",
        "pped"
      ],
      [
        "Ġst",
        "uck"
      ],
      [
        "Ġdo",
        "ctor"
      ],
      [
        "Ġb",
        "ite"
      ],
      [
        "r",
        "ed"
      ],
      [
        "Ġbow",
        "l"
      ],
      [
        "Ġm",
        "iss"
      ],
      [
        "u",
        "it"
      ],
      [
        "Ġsam",
        "e"
      ],
      [
        "Ġtw",
        "ins"
      ],
      [
        "Ġcry",
        "ing"
      ],
      [
        "Ġbelie",
        "ve"
      ],
      [
        "id",
        "ent"
      ],
      [
        "Ġmo",
        "lly"
      ],
      [
        "Ġl",
        "uck"
      ],
      [
        "Ġb",
        "ath"
      ],
      [
        "Ġwould",
        "n"
      ],
      [
        "Ġk",
        "itt"
      ],
      [
        "Ġhe",
        "al"
      ],
      [
        "e",
        "re"
      ],
      [
        "Ġh",
        "ig"
      ],
      [
        "d",
        "o"
      ],
      [
        "Ġcar",
        "rot"
      ],
      [
        "ch",
        "ool"
      ],
      [
        "b",
        "ble"
      ],
      [
        "Ġclo",
        "sed"
      ],
      [
        "Ġhe",
        "art"
      ],
      [
        "Ġch",
        "air"
      ],
      [
        "Ġb",
        "uck"
      ],
      [
        "m",
        "ia"
      ],
      [
        "Ġfr",
        "uit"
      ],
      [
        "Ġc",
        "our"
      ],
      [
        "Ġat",
        "t"
      ],
      [
        "Ġs",
        "chool"
      ],
      [
        "Ġte",
        "ac"
      ],
      [
        "b",
        "r"
      ],
      [
        "o",
        "s"
      ],
      [
        "Ġm",
        "r"
      ],
      [
        "Ġm",
        "ix"
      ],
      [
        "f",
        "in"
      ],
      [
        "Ġwith",
        "out"
      ],
      [
        "Ġhop",
        "ed"
      ],
      [
        "Ġba",
        "sk"
      ],
      [
        "Ġfeel",
        "s"
      ],
      [
        "it",
        "ing"
      ],
      [
        "Ġj",
        "ill"
      ],
      [
        "Ġeat",
        "ing"
      ],
      [
        "Ġfair",
        "y"
      ],
      [
        "Ġbask",
        "et"
      ],
      [
        "pp",
        "ing"
      ],
      [
        "Ġto",
        "wn"
      ],
      [
        "Ġcr",
        "ay"
      ],
      [
        "Ġcour",
        "se"
      ],
      [
        "Ġwel",
        "come"
      ],
      [
        "Ġcl",
        "apped"
      ],
      [
        "Ġbut",
        "t"
      ],
      [
        "Ġst",
        "and"
      ],
      [
        "Ġgent",
        "le"
      ],
      [
        "Ġp",
        "ack"
      ],
      [
        "vent",
        "ually"
      ],
      [
        "Ġdro",
        "ve"
      ],
      [
        "Ġpu",
        "shed"
      ],
      [
        "or",
        "s"
      ],
      [
        "is",
        "sed"
      ],
      [
        "i",
        "er"
      ],
      [
        "or",
        "row"
      ],
      [
        "Ġhig",
        "her"
      ],
      [
        "Ġsw",
        "ings"
      ],
      [
        "Ġal",
        "ong"
      ],
      [
        "Ġse",
        "c"
      ],
      [
        "Ġc",
        "orn"
      ],
      [
        "Ġne",
        "igh"
      ],
      [
        "Ġm",
        "ama"
      ],
      [
        "Ġsm",
        "o"
      ],
      [
        "Ġpo",
        "cket"
      ],
      [
        "Ġh",
        "it"
      ],
      [
        "Ġteac",
        "her"
      ],
      [
        "Ġpie",
        "ce"
      ],
      [
        "Ġacc",
        "ident"
      ],
      [
        "Ġneigh",
        "b"
      ],
      [
        "Ġp",
        "ers"
      ],
      [
        "or",
        "d"
      ],
      [
        "o",
        "l"
      ],
      [
        "Ġg",
        "ames"
      ],
      [
        "Ġf",
        "ree"
      ],
      [
        "ra",
        "ct"
      ],
      [
        "Ġche",
        "ered"
      ],
      [
        "Ġw",
        "ings"
      ],
      [
        "Ġfor",
        "get"
      ],
      [
        "Ġj",
        "our"
      ],
      [
        "Ġd",
        "ry"
      ],
      [
        "Ġexpl",
        "ained"
      ],
      [
        "Ġlong",
        "er"
      ],
      [
        "Ġy",
        "ard"
      ],
      [
        "fin",
        "ally"
      ],
      [
        "i",
        "ble"
      ],
      [
        "c",
        "hes"
      ],
      [
        "Ġwe",
        "ll"
      ],
      [
        "m",
        "ent"
      ],
      [
        "Ġm",
        "ary"
      ],
      [
        "itt",
        "ing"
      ],
      [
        "Ġno",
        "ises"
      ],
      [
        "Ġne",
        "ck"
      ],
      [
        "Ġsa",
        "ng"
      ],
      [
        "Ġthr",
        "ow"
      ],
      [
        "Ġl",
        "ate"
      ],
      [
        "Ġhapp",
        "en"
      ],
      [
        "Ġhug",
        "s"
      ],
      [
        "l",
        "ila"
      ],
      [
        "Ġyou",
        "ng"
      ],
      [
        "Ġb",
        "at"
      ],
      [
        "e",
        "ad"
      ],
      [
        "Ġst",
        "ar"
      ],
      [
        "ve",
        "l"
      ],
      [
        "Ġstor",
        "ies"
      ],
      [
        "Ġturn",
        "s"
      ],
      [
        "Ġsing",
        "ing"
      ],
      [
        "Ġl",
        "on"
      ],
      [
        "Ġsho",
        "es"
      ],
      [
        "ph",
        "ant"
      ],
      [
        "Ġadventure",
        "s"
      ],
      [
        "Ġk",
        "ing"
      ],
      [
        "ne",
        "y"
      ],
      [
        "Ġele",
        "phant"
      ],
      [
        "Ġtr",
        "ou"
      ],
      [
        "Ġt",
        "iny"
      ],
      [
        "Ġow",
        "l"
      ],
      [
        "Ġm",
        "ine"
      ],
      [
        "Ġapp",
        "le"
      ],
      [
        "Ġlun",
        "ch"
      ],
      [
        "Ġse",
        "a"
      ],
      [
        "Ġup",
        "set"
      ],
      [
        "Ġlon",
        "ely"
      ],
      [
        "Ġmon",
        "key"
      ],
      [
        "Ġinst",
        "ead"
      ],
      [
        "Ġw",
        "he"
      ],
      [
        "Ġstre",
        "et"
      ],
      [
        "Ġbel",
        "ong"
      ],
      [
        "Ġd",
        "ist"
      ],
      [
        "Ġsec",
        "ret"
      ],
      [
        "ou",
        "n"
      ],
      [
        "Ġpl",
        "ac"
      ],
      [
        "Ġw",
        "ish"
      ],
      [
        "Ġp",
        "h"
      ],
      [
        "e",
        "k"
      ],
      [
        "ount",
        "ain"
      ],
      [
        "Ġp",
        "urp"
      ],
      [
        "Ġf",
        "ence"
      ],
      [
        "t",
        "le"
      ],
      [
        "Ġmo",
        "ved"
      ],
      [
        "Ġw",
        "ise"
      ],
      [
        "Ġnear",
        "by"
      ],
      [
        "Ġexpl",
        "oring"
      ],
      [
        "Ġsh",
        "ook"
      ],
      [
        "Ġs",
        "oup"
      ],
      [
        "Ġd",
        "es"
      ],
      [
        "Ġm",
        "ad"
      ],
      [
        "Ġye",
        "ar"
      ],
      [
        "Ġna",
        "ught"
      ],
      [
        "Ġsh",
        "op"
      ],
      [
        "Ġnaught",
        "y"
      ],
      [
        "b",
        "ow"
      ],
      [
        "Ġst",
        "ars"
      ],
      [
        "Ġbr",
        "ing"
      ],
      [
        "fu",
        "sed"
      ],
      [
        "Ġj",
        "ar"
      ],
      [
        "Ġ",
        "es"
      ],
      [
        "Ġta",
        "king"
      ],
      [
        "Ġin",
        "v"
      ],
      [
        "Ġca",
        "ught"
      ],
      [
        "Ġex",
        "p"
      ],
      [
        "ock",
        "ed"
      ],
      [
        "Ġnot",
        "hing"
      ],
      [
        "y",
        "ard"
      ],
      [
        "w",
        "ard"
      ],
      [
        "ll",
        "a"
      ],
      [
        "Ġdro",
        "pped"
      ],
      [
        "Ġback",
        "yard"
      ],
      [
        "Ġsee",
        "med"
      ],
      [
        "Ġrock",
        "s"
      ],
      [
        "Ġpurp",
        "le"
      ],
      [
        "Ġdr",
        "ink"
      ],
      [
        "Ġrel",
        "ie"
      ],
      [
        "Ġre",
        "sp"
      ],
      [
        "c",
        "es"
      ],
      [
        "Ġsun",
        "ny"
      ],
      [
        "Ġem",
        "ma"
      ],
      [
        "ught",
        "er"
      ],
      [
        "Ġ",
        "3"
      ],
      [
        "ad",
        "ow"
      ],
      [
        "s",
        "y"
      ],
      [
        "Ġbuck",
        "et"
      ],
      [
        "Ġor",
        "ange"
      ],
      [
        "Ġsw",
        "am"
      ],
      [
        "Ġth",
        "ough"
      ],
      [
        "Ġma",
        "il"
      ],
      [
        "Ġp",
        "ast"
      ],
      [
        "Ġc",
        "ow"
      ],
      [
        "Ġa",
        "f"
      ],
      [
        "co",
        "l"
      ],
      [
        "Ġc",
        "ou"
      ],
      [
        "Ġm",
        "il"
      ],
      [
        "Ġshap",
        "es"
      ],
      [
        "ion",
        "s"
      ],
      [
        "Ġrain",
        "bow"
      ],
      [
        "Ġs",
        "itting"
      ],
      [
        "Ġsound",
        "s"
      ],
      [
        "Ġwo",
        "ke"
      ],
      [
        "Ġben",
        "ch"
      ],
      [
        "bb",
        "y"
      ],
      [
        "Ġo",
        "k"
      ],
      [
        "Ġbus",
        "y"
      ],
      [
        "c",
        "ing"
      ],
      [
        "it",
        "y"
      ],
      [
        "Ġf",
        "it"
      ],
      [
        "Ġwhen",
        "ever"
      ],
      [
        "Ġwonder",
        "ed"
      ],
      [
        "Ġo",
        "b"
      ],
      [
        "Ġno",
        "se"
      ],
      [
        "Ġn",
        "est"
      ],
      [
        "Ġe",
        "ventually"
      ],
      [
        "Ġl",
        "ater"
      ],
      [
        "Ġv",
        "al"
      ],
      [
        "Ġb",
        "oun"
      ],
      [
        "ck",
        "s"
      ],
      [
        "Ġda",
        "ughter"
      ],
      [
        "es",
        "e"
      ],
      [
        "Ġta",
        "kes"
      ],
      [
        "Ġju",
        "ice"
      ],
      [
        "et",
        "er"
      ],
      [
        "Ġp",
        "ig"
      ],
      [
        "Ġk",
        "ite"
      ],
      [
        "Ġhold",
        "ing"
      ],
      [
        "re",
        "ad"
      ],
      [
        "Ġke",
        "y"
      ],
      [
        "Ġcom",
        "es"
      ],
      [
        "l",
        "a"
      ],
      [
        "Ġarm",
        "s"
      ],
      [
        "Ġbir",
        "th"
      ],
      [
        "Ġbirth",
        "day"
      ],
      [
        "t",
        "s"
      ],
      [
        "Ġc",
        "ir"
      ],
      [
        "Ġco",
        "at"
      ],
      [
        "Ġluck",
        "y"
      ],
      [
        "in",
        "ing"
      ],
      [
        "ra",
        "id"
      ],
      [
        "Ġaf",
        "raid"
      ],
      [
        "Ġre",
        "c"
      ],
      [
        "Ġbran",
        "ch"
      ],
      [
        "pp",
        "er"
      ],
      [
        "Ġrelie",
        "ved"
      ],
      [
        "Ġdri",
        "ver"
      ],
      [
        "id",
        "ge"
      ],
      [
        "Ġfore",
        "ver"
      ],
      [
        "Ġm",
        "itt"
      ],
      [
        "Ġpe",
        "ace"
      ],
      [
        "ver",
        "ed"
      ],
      [
        "o",
        "f"
      ],
      [
        "Ġsp",
        "oon"
      ],
      [
        "Ġhe",
        "llo"
      ],
      [
        "Ġcut",
        "e"
      ],
      [
        "Ġcar",
        "ry"
      ],
      [
        "Ġprom",
        "ise"
      ],
      [
        "Ġs",
        "ick"
      ],
      [
        "le",
        "ct"
      ],
      [
        "Ġli",
        "ft"
      ],
      [
        "st",
        "ing"
      ],
      [
        "Ġr",
        "ound"
      ],
      [
        "our",
        "s"
      ],
      [
        "t",
        "en"
      ],
      [
        "Ġhug",
        "e"
      ],
      [
        "Ġa",
        "ct"
      ],
      [
        "Ġpat",
        "ient"
      ],
      [
        "e",
        "ar"
      ],
      [
        "c",
        "er"
      ],
      [
        "un",
        "g"
      ],
      [
        "Ġtou",
        "ched"
      ],
      [
        "Ġhop",
        "e"
      ],
      [
        "Ġche",
        "ese"
      ],
      [
        "p",
        "ed"
      ],
      [
        "Ġf",
        "ing"
      ],
      [
        "Ġgra",
        "b"
      ],
      [
        "Ġz",
        "oom"
      ],
      [
        "Ġexc",
        "iting"
      ],
      [
        "Ġlet",
        "ter"
      ],
      [
        "Ġint",
        "ere"
      ],
      [
        "Ġday",
        "s"
      ],
      [
        "Ġli",
        "fe"
      ],
      [
        "Ġbu",
        "sh"
      ],
      [
        "Ġlaug",
        "hing"
      ],
      [
        "Ġon",
        "to"
      ],
      [
        "Ġbre",
        "ad"
      ],
      [
        "Ġba",
        "nd"
      ],
      [
        "bo",
        "ard"
      ],
      [
        "e",
        "e"
      ],
      [
        "Ġg",
        "igg"
      ],
      [
        "u",
        "nt"
      ],
      [
        "Ġim",
        "ag"
      ],
      [
        "g",
        "ged"
      ],
      [
        "Ġcreat",
        "ure"
      ],
      [
        "Ġp",
        "ower"
      ],
      [
        "Ġdis",
        "co"
      ],
      [
        "Ġre",
        "t"
      ],
      [
        "he",
        "y"
      ],
      [
        "Ġh",
        "oney"
      ],
      [
        "ar",
        "p"
      ],
      [
        "Ġsp",
        "in"
      ],
      [
        "al",
        "m"
      ],
      [
        "Ġk",
        "ick"
      ],
      [
        "sh",
        "ine"
      ],
      [
        "Ġshe",
        "ll"
      ],
      [
        "Ġcra",
        "w"
      ],
      [
        "Ġswim",
        "ming"
      ],
      [
        "Ġm",
        "ist"
      ],
      [
        "Ġco",
        "zy"
      ],
      [
        "Ġsun",
        "shine"
      ],
      [
        "Ġjour",
        "ney"
      ],
      [
        "Ġw",
        "ra"
      ],
      [
        "Ġwh",
        "ist"
      ],
      [
        "Ġin",
        "c"
      ],
      [
        "tom",
        "my"
      ],
      [
        "Ġsh",
        "arp"
      ],
      [
        "Ġsu",
        "c"
      ],
      [
        "Ġbot",
        "tle"
      ],
      [
        "Ġmil",
        "k"
      ],
      [
        "n",
        "ess"
      ],
      [
        "Ġwatch",
        "ing"
      ],
      [
        "Ġe",
        "ar"
      ],
      [
        "Ġcom",
        "fort"
      ],
      [
        "Ġret",
        "urn"
      ],
      [
        "p",
        "a"
      ],
      [
        "Ġe",
        "as"
      ],
      [
        "Ġpu",
        "dd"
      ],
      [
        "Ġaccident",
        "ally"
      ],
      [
        "Ġca",
        "ve"
      ],
      [
        "el",
        "s"
      ],
      [
        "Ġsam",
        "my"
      ],
      [
        "Ġsp",
        "o"
      ],
      [
        "g",
        "g"
      ],
      [
        "Ġput",
        "s"
      ],
      [
        "Ġtal",
        "ked"
      ],
      [
        "Ġgi",
        "ves"
      ],
      [
        "Ġpoin",
        "ted"
      ],
      [
        "Ġg",
        "ather"
      ],
      [
        "Ġ",
        "ent"
      ],
      [
        "it",
        "ch"
      ],
      [
        "Ġsmil",
        "ing"
      ],
      [
        "Ġcol",
        "lect"
      ],
      [
        "Ġf",
        "an"
      ],
      [
        "Ġro",
        "ad"
      ],
      [
        "Ġh",
        "or"
      ],
      [
        "Ġany",
        "one"
      ],
      [
        "Ġtw",
        "eet"
      ],
      [
        "Ġc",
        "e"
      ],
      [
        "l",
        "ater"
      ],
      [
        "Ġb",
        "ought"
      ],
      [
        "b",
        "all"
      ],
      [
        "Ġsear",
        "ched"
      ],
      [
        "Ġsand",
        "w"
      ],
      [
        "Ġapp",
        "les"
      ],
      [
        "g",
        "ood"
      ],
      [
        "r",
        "ound"
      ],
      [
        "ble",
        "m"
      ],
      [
        "Ġpro",
        "blem"
      ],
      [
        "Ġme",
        "et"
      ],
      [
        "n",
        "ot"
      ],
      [
        "ir",
        "t"
      ],
      [
        "iz",
        "e"
      ],
      [
        "Ġma",
        "ch"
      ],
      [
        "Ġro",
        "ll"
      ],
      [
        "Ġm",
        "ummy"
      ],
      [
        "Ġwh",
        "is"
      ],
      [
        "m",
        "er"
      ],
      [
        "l",
        "ucy"
      ],
      [
        "Ġw",
        "om"
      ],
      [
        "Ġp",
        "op"
      ],
      [
        "Ġintere",
        "sting"
      ],
      [
        "Ġlo",
        "ves"
      ],
      [
        "Ġwom",
        "an"
      ],
      [
        "Ġsp",
        "id"
      ],
      [
        "Ġpl",
        "ane"
      ],
      [
        "Ġp",
        "ile"
      ],
      [
        "Ġduck",
        "s"
      ],
      [
        "Ġk",
        "iss"
      ],
      [
        "Ġpre",
        "s"
      ],
      [
        "Ġheal",
        "thy"
      ],
      [
        "Ġtast",
        "y"
      ],
      [
        "Ġw",
        "ide"
      ],
      [
        "Ġv",
        "ill"
      ],
      [
        "Ġjim",
        "my"
      ],
      [
        "a",
        "le"
      ],
      [
        "Ġp",
        "ath"
      ],
      [
        "Ġtrou",
        "ble"
      ],
      [
        "am",
        "ed"
      ],
      [
        "Ġcle",
        "ver"
      ],
      [
        "a",
        "ur"
      ],
      [
        "Ġad",
        "m"
      ],
      [
        "Ġpr",
        "ot"
      ],
      [
        "Ġcray",
        "ons"
      ],
      [
        "s",
        "ie"
      ],
      [
        "Ġcloud",
        "s"
      ],
      [
        "Ġmat",
        "ter"
      ],
      [
        "ow",
        "ed"
      ],
      [
        "Ġstor",
        "m"
      ],
      [
        "on",
        "t"
      ],
      [
        "Ġpers",
        "on"
      ],
      [
        "Ġp",
        "ill"
      ],
      [
        "Ġh",
        "on"
      ],
      [
        "u",
        "b"
      ],
      [
        "Ġa",
        "p"
      ],
      [
        "Ġsnow",
        "man"
      ],
      [
        "et",
        "h"
      ],
      [
        "Ġfe",
        "ather"
      ],
      [
        "Ġro",
        "pe"
      ],
      [
        "Ġprot",
        "ect"
      ],
      [
        "Ġsh",
        "ining"
      ],
      [
        "Ġfr",
        "ont"
      ],
      [
        "Ġsmell",
        "ed"
      ],
      [
        "s",
        "c"
      ],
      [
        "Ġbutt",
        "on"
      ],
      [
        "Ġp",
        "ract"
      ],
      [
        "Ġresp",
        "ect"
      ],
      [
        "Ġz",
        "oo"
      ],
      [
        "j",
        "ust"
      ],
      [
        "Ġh",
        "ar"
      ],
      [
        "Ġsa",
        "f"
      ],
      [
        "Ġspot",
        "ted"
      ],
      [
        "Ġmin",
        "ut"
      ],
      [
        "Ġscream",
        "ed"
      ],
      [
        "Ġmitt",
        "ens"
      ],
      [
        "Ġpres",
        "ent"
      ],
      [
        "Ġwh",
        "ich"
      ],
      [
        "Ġmu",
        "d"
      ],
      [
        "Ġp",
        "ar"
      ],
      [
        "Ġor",
        "gan"
      ],
      [
        "Ġdan",
        "ced"
      ],
      [
        "Ġche",
        "er"
      ],
      [
        "Ġbu",
        "bble"
      ],
      [
        "bo",
        "b"
      ],
      [
        "j",
        "im"
      ],
      [
        "Ġpu",
        "zz"
      ],
      [
        "Ġqu",
        "est"
      ],
      [
        "is",
        "a"
      ],
      [
        "Ġte",
        "ach"
      ],
      [
        "Ġapp",
        "eared"
      ],
      [
        "Ġmy",
        "ster"
      ],
      [
        "Ġas",
        "h"
      ],
      [
        "Ġse",
        "at"
      ],
      [
        "Ġth",
        "in"
      ],
      [
        "Ġsna",
        "ke"
      ],
      [
        "mo",
        "lly"
      ],
      [
        "Åĵ",
        "i"
      ],
      [
        "ch",
        "ing"
      ],
      [
        "Ġb",
        "ark"
      ],
      [
        "Ġw",
        "ild"
      ],
      [
        "Ġs",
        "ur"
      ],
      [
        "Ġcorn",
        "er"
      ],
      [
        "o",
        "ve"
      ],
      [
        "Ġas",
        "leep"
      ],
      [
        "Ġlove",
        "ly"
      ],
      [
        "Ġgi",
        "ant"
      ],
      [
        "Ġansw",
        "er"
      ],
      [
        "Ġro",
        "b"
      ],
      [
        "Ġgent",
        "ly"
      ],
      [
        "Ġhor",
        "se"
      ],
      [
        "ep",
        "end"
      ],
      [
        "Ġwe",
        "aring"
      ],
      [
        "Ġwho",
        "le"
      ],
      [
        "Ġneighb",
        "or"
      ],
      [
        "Ġdir",
        "t"
      ],
      [
        "m",
        "um"
      ],
      [
        "oo",
        "se"
      ],
      [
        "Ġplac",
        "es"
      ],
      [
        "Ġgo",
        "es"
      ],
      [
        "er",
        "t"
      ],
      [
        "p",
        "s"
      ],
      [
        "Ġsh",
        "r"
      ],
      [
        "Ġm",
        "ind"
      ],
      [
        "e",
        "very"
      ],
      [
        "Ġm",
        "ed"
      ],
      [
        "Ġimp",
        "ress"
      ],
      [
        "ul",
        "ar"
      ],
      [
        "Ġspl",
        "as"
      ],
      [
        "Ġro",
        "se"
      ],
      [
        "Ġcon",
        "fused"
      ],
      [
        "Ġtri",
        "es"
      ],
      [
        "Ġd",
        "i"
      ],
      [
        "Ġc",
        "alm"
      ],
      [
        "Ġli",
        "ve"
      ],
      [
        "Ġro",
        "lled"
      ],
      [
        "Ġem",
        "ily"
      ],
      [
        "at",
        "o"
      ],
      [
        "Ġsl",
        "id"
      ],
      [
        "Ġc",
        "ard"
      ],
      [
        "n",
        "ic"
      ],
      [
        "Ġch",
        "ick"
      ],
      [
        "Ġsh",
        "aring"
      ],
      [
        "Ġsu",
        "pp"
      ],
      [
        "Ġtast",
        "ed"
      ],
      [
        "Ġp",
        "ass"
      ],
      [
        "ce",
        "an"
      ],
      [
        "Ġo",
        "cean"
      ],
      [
        "Ġforg",
        "ive"
      ],
      [
        "Ġpic",
        "nic"
      ],
      [
        "Ġl",
        "ar"
      ],
      [
        "Ġcook",
        "ie"
      ],
      [
        "Ġs",
        "er"
      ],
      [
        "Ġmach",
        "ine"
      ],
      [
        "Ġru",
        "de"
      ],
      [
        "Ġla",
        "st"
      ],
      [
        "Ġdri",
        "ve"
      ],
      [
        "Ġsp",
        "ent"
      ],
      [
        "Ġte",
        "eth"
      ],
      [
        "ss",
        "ed"
      ],
      [
        "Ġt",
        "un"
      ],
      [
        "Ġfur",
        "ry"
      ],
      [
        "Ġp",
        "an"
      ],
      [
        "Ġph",
        "one"
      ],
      [
        "a",
        "ger"
      ],
      [
        "Ġspid",
        "er"
      ],
      [
        "Ġo",
        "ven"
      ],
      [
        "Ġl",
        "ay"
      ],
      [
        "Ġp",
        "our"
      ],
      [
        "m",
        "e"
      ],
      [
        "Ġtom",
        "orrow"
      ],
      [
        "Ġdel",
        "ight"
      ],
      [
        "Ġgrand",
        "pa"
      ],
      [
        "Ġpretend",
        "ed"
      ],
      [
        "Ġwor",
        "m"
      ],
      [
        "Ġr",
        "ing"
      ],
      [
        "Ġfe",
        "et"
      ],
      [
        "Ġsa",
        "l"
      ],
      [
        "Ġfight",
        "ing"
      ],
      [
        "Ġcou",
        "ch"
      ],
      [
        "Ġfa",
        "ces"
      ],
      [
        "un",
        "k"
      ],
      [
        "um",
        "ber"
      ],
      [
        "Ġhelp",
        "ful"
      ],
      [
        "Ġl",
        "ad"
      ],
      [
        "Ġw",
        "ip"
      ],
      [
        "ld",
        "er"
      ],
      [
        "Ġwa",
        "ve"
      ],
      [
        "Ġb",
        "an"
      ],
      [
        "b",
        "ar"
      ],
      [
        "Ġm",
        "ountain"
      ],
      [
        "Ġbr",
        "u"
      ],
      [
        "Ġsh",
        "y"
      ],
      [
        "Ġcho",
        "col"
      ],
      [
        "Ġtal",
        "king"
      ],
      [
        "on",
        "es"
      ],
      [
        "Ġn",
        "ut"
      ],
      [
        "Ġc",
        "art"
      ],
      [
        "Ġt",
        "id"
      ],
      [
        "Ġtr",
        "ue"
      ],
      [
        "Ġst",
        "ep"
      ],
      [
        "Ġsp",
        "e"
      ],
      [
        "Ġthe",
        "se"
      ],
      [
        "Ġs",
        "elf"
      ],
      [
        "Ġsp",
        "read"
      ],
      [
        "Ġ",
        "ign"
      ],
      [
        "Ġjen",
        "ny"
      ],
      [
        "Ġvill",
        "age"
      ],
      [
        "Ġe",
        "ager"
      ],
      [
        "Ġsmo",
        "oth"
      ],
      [
        "Ġfo",
        "ot"
      ],
      [
        "Ġrem",
        "ind"
      ],
      [
        "Ġpu",
        "sh"
      ],
      [
        "Ġst",
        "ret"
      ],
      [
        "Ġco",
        "in"
      ],
      [
        "Ġcan",
        "not"
      ],
      [
        "Ġwr",
        "ite"
      ],
      [
        "Ġa",
        "nt"
      ],
      [
        "p",
        "lease"
      ],
      [
        "p",
        "er"
      ],
      [
        "Ġbuild",
        "ing"
      ],
      [
        "Ġlad",
        "der"
      ],
      [
        "Ġrob",
        "ot"
      ],
      [
        "Ġhid",
        "ing"
      ],
      [
        "Ġbug",
        "s"
      ],
      [
        "Ġtreat",
        "s"
      ],
      [
        "Ġtoo",
        "l"
      ],
      [
        "Ġch",
        "ased"
      ],
      [
        "Ġw",
        "ore"
      ],
      [
        "Ġtri",
        "p"
      ],
      [
        "ig",
        "hed"
      ],
      [
        "Ġb",
        "lew"
      ],
      [
        "so",
        "on"
      ],
      [
        "Ġem",
        "bar"
      ],
      [
        "Ġc",
        "oo"
      ],
      [
        "Ġembar",
        "ra"
      ],
      [
        "Ġc",
        "ross"
      ],
      [
        "Ġh",
        "um"
      ],
      [
        "Ġfin",
        "ish"
      ],
      [
        "Ġbe",
        "ll"
      ],
      [
        "Ġwait",
        "ing"
      ],
      [
        "Ġpa",
        "w"
      ],
      [
        "Ġp",
        "ool"
      ],
      [
        "Ġpudd",
        "le"
      ],
      [
        "i",
        "fe"
      ],
      [
        "Ġkne",
        "e"
      ],
      [
        "Ġshe",
        "lf"
      ],
      [
        "Ġneck",
        "l"
      ],
      [
        "Ġst",
        "ir"
      ],
      [
        "n",
        "ow"
      ],
      [
        "Ġsong",
        "s"
      ],
      [
        "al",
        "s"
      ],
      [
        "Ġhe",
        "l"
      ],
      [
        "at",
        "or"
      ],
      [
        "iz",
        "z"
      ],
      [
        "h",
        "a"
      ],
      [
        "Ġself",
        "ish"
      ],
      [
        "Ġchocol",
        "ate"
      ],
      [
        "y",
        "ing"
      ],
      [
        "Ġst",
        "ra"
      ],
      [
        "Ġstr",
        "ing"
      ],
      [
        "air",
        "s"
      ],
      [
        "f",
        "l"
      ],
      [
        "Ġtast",
        "e"
      ],
      [
        "Ġso",
        "l"
      ],
      [
        "Ġsc",
        "ar"
      ],
      [
        "Ġlar",
        "ge"
      ],
      [
        "Ġg",
        "en"
      ],
      [
        "Ġban",
        "an"
      ],
      [
        "Ġsa",
        "ck"
      ],
      [
        "Ġch",
        "ar"
      ],
      [
        "Ġp",
        "le"
      ],
      [
        "Ġn",
        "et"
      ],
      [
        "Ġlea",
        "f"
      ],
      [
        "Ġcra",
        "b"
      ],
      [
        "m",
        "ama"
      ],
      [
        "ist",
        "ant"
      ],
      [
        "bo",
        "x"
      ],
      [
        "Ġj",
        "ake"
      ],
      [
        "Ġfix",
        "ed"
      ],
      [
        "Ġce",
        "le"
      ],
      [
        "Ġspr",
        "ay"
      ],
      [
        "Ġwas",
        "h"
      ],
      [
        "Ġst",
        "one"
      ],
      [
        "Ġtr",
        "ust"
      ],
      [
        "Ġbar",
        "ked"
      ],
      [
        "d",
        "ad"
      ],
      [
        "Ġcele",
        "br"
      ],
      [
        "Ġcl",
        "oth"
      ],
      [
        "Ġpeace",
        "ful"
      ],
      [
        "u",
        "ser"
      ],
      [
        "ass",
        "istant"
      ],
      [
        "Ġkitt",
        "y"
      ],
      [
        "ump",
        "y"
      ],
      [
        "Ġcol",
        "our"
      ],
      [
        ".",
        "<|"
      ],
      [
        "a",
        "kes"
      ],
      [
        "Ġj",
        "ung"
      ],
      [
        "Ġspl",
        "ash"
      ],
      [
        "Ġm",
        "issed"
      ],
      [
        "Ġjung",
        "le"
      ],
      [
        "Ġmo",
        "on"
      ],
      [
        "Ġd",
        "eter"
      ],
      [
        "Ġhon",
        "est"
      ],
      [
        "Ġ",
        "'"
      ],
      [
        "ig",
        "er"
      ],
      [
        "o",
        "in"
      ],
      [
        "Ġfor",
        "ward"
      ],
      [
        "Ġjump",
        "ing"
      ],
      [
        "Ġdeter",
        "m"
      ],
      [
        "Ġembarra",
        "ssed"
      ],
      [
        "Ġland",
        "ed"
      ],
      [
        "Ġba",
        "l"
      ],
      [
        "Ġgr",
        "ay"
      ],
      [
        "Ġtid",
        "y"
      ],
      [
        "Ġneckl",
        "ace"
      ],
      [
        "Ġdec",
        "or"
      ],
      [
        "sara",
        "h"
      ],
      [
        "Ġt",
        "v"
      ],
      [
        "mo",
        "st"
      ],
      [
        "d",
        "ge"
      ],
      [
        "o",
        "ld"
      ],
      [
        "Ġgra",
        "ce"
      ],
      [
        "Ġhe",
        "ars"
      ],
      [
        "Ġstick",
        "s"
      ],
      [
        "Ġdisapp",
        "oin"
      ],
      [
        "Ġle",
        "gs"
      ],
      [
        "Ġsuc",
        "cess"
      ],
      [
        "Ġcarrot",
        "s"
      ],
      [
        "Ġcreat",
        "ive"
      ],
      [
        "Ġsh",
        "irt"
      ],
      [
        "Ġb",
        "er"
      ],
      [
        "Ġte",
        "a"
      ],
      [
        "Ġkn",
        "ocked"
      ],
      [
        "Ġme",
        "adow"
      ],
      [
        "n",
        "ed"
      ],
      [
        "Ġal",
        "most"
      ],
      [
        "get",
        "able"
      ],
      [
        "Ġgen",
        "er"
      ],
      [
        "Ġst",
        "ood"
      ],
      [
        "Ġve",
        "getable"
      ],
      [
        "Ġs",
        "our"
      ],
      [
        "op",
        "e"
      ],
      [
        "Ġme",
        "ant"
      ],
      [
        "Ġem",
        "p"
      ],
      [
        "le",
        "x"
      ],
      [
        "Ġbre",
        "ath"
      ],
      [
        "Ġtight",
        "ly"
      ],
      [
        "Ġpl",
        "ate"
      ],
      [
        "Ġash",
        "amed"
      ],
      [
        "Ġemp",
        "ty"
      ],
      [
        "Ġwhist",
        "le"
      ],
      [
        "Ġg",
        "as"
      ],
      [
        "Ġpill",
        "ow"
      ],
      [
        "d",
        "le"
      ],
      [
        "Ġtell",
        "s"
      ],
      [
        "Ġgre",
        "w"
      ],
      [
        "g",
        "round"
      ],
      [
        "Ġshe",
        "ep"
      ],
      [
        "d",
        "en"
      ],
      [
        "Ġle",
        "m"
      ],
      [
        "w",
        "el"
      ],
      [
        "Ġgo",
        "ld"
      ],
      [
        "Ġunderst",
        "ood"
      ],
      [
        "Ġcar",
        "ried"
      ],
      [
        "Ġyell",
        "ed"
      ],
      [
        "Ġl",
        "isa"
      ],
      [
        "op",
        "h"
      ],
      [
        "e",
        "b"
      ],
      [
        "Ġsa",
        "ve"
      ],
      [
        "Ġdisappoin",
        "ted"
      ],
      [
        "Ġpol",
        "ice"
      ],
      [
        "Ġh",
        "ours"
      ],
      [
        "Ġh",
        "ur"
      ],
      [
        "i",
        "an"
      ],
      [
        "v",
        "ous"
      ],
      [
        "Ġno",
        "ds"
      ],
      [
        "Ġa",
        "v"
      ],
      [
        "Ġsnack",
        "s"
      ],
      [
        "y",
        "e"
      ],
      [
        "ust",
        "r"
      ],
      [
        "ll",
        "ie"
      ],
      [
        "it",
        "al"
      ],
      [
        "Ġp",
        "izz"
      ],
      [
        "Ġkitt",
        "en"
      ],
      [
        "Ġspark",
        "ly"
      ],
      [
        "h",
        "in"
      ],
      [
        "Ġho",
        "sp"
      ],
      [
        "Ġp",
        "ay"
      ],
      [
        "Ġche",
        "w"
      ],
      [
        "ell",
        "y"
      ],
      [
        "Ġsh",
        "ip"
      ],
      [
        "Ġhosp",
        "ital"
      ],
      [
        "Ġfr",
        "ustr"
      ],
      [
        "w",
        "or"
      ],
      [
        "Ġprin",
        "ce"
      ],
      [
        "Ġstand",
        "ing"
      ],
      [
        "Ġhid",
        "den"
      ],
      [
        "Ġl",
        "ine"
      ],
      [
        "Ġb",
        "ored"
      ],
      [
        "Ġwo",
        "lf"
      ],
      [
        "Ġr",
        "ad"
      ],
      [
        "Ġt",
        "est"
      ],
      [
        "ur",
        "se"
      ],
      [
        "Ġgener",
        "ous"
      ],
      [
        "a",
        "king"
      ],
      [
        "Ġknow",
        "ing"
      ],
      [
        "Ġta",
        "ught"
      ],
      [
        "e",
        "en"
      ],
      [
        "st",
        "op"
      ],
      [
        "Ġeas",
        "y"
      ],
      [
        "Ġgl",
        "ass"
      ],
      [
        "c",
        "om"
      ],
      [
        "Ġscar",
        "f"
      ],
      [
        "Ġrock",
        "et"
      ],
      [
        "Ġpo",
        "or"
      ],
      [
        "Ġbl",
        "ow"
      ],
      [
        "bo",
        "dy"
      ],
      [
        "if",
        "f"
      ],
      [
        "Ġminut",
        "es"
      ],
      [
        "Ġreturn",
        "ed"
      ],
      [
        "Ġpizz",
        "a"
      ],
      [
        "Ġbed",
        "room"
      ],
      [
        "Ġplant",
        "s"
      ],
      [
        "Ġgr",
        "oup"
      ],
      [
        "Ġp",
        "ri"
      ],
      [
        "Ġpol",
        "ite"
      ],
      [
        "Ġwa",
        "ves"
      ],
      [
        "Ġj",
        "elly"
      ],
      [
        "ir",
        "d"
      ],
      [
        "Ġmyster",
        "ious"
      ],
      [
        "Ġm",
        "ir"
      ],
      [
        "Ġs",
        "ighed"
      ],
      [
        "Ġsh",
        "ore"
      ],
      [
        "the",
        "re"
      ],
      [
        "ul",
        "t"
      ],
      [
        "Ġp",
        "ir"
      ],
      [
        "Ġse",
        "ed"
      ],
      [
        "Ġp",
        "in"
      ],
      [
        "jo",
        "e"
      ],
      [
        "Ġsee",
        "k"
      ],
      [
        "u",
        "p"
      ],
      [
        "Ġp",
        "as"
      ],
      [
        "Ġdeterm",
        "ined"
      ],
      [
        "Ġw",
        "is"
      ],
      [
        "Ġpet",
        "er"
      ],
      [
        "Ġpuzz",
        "le"
      ],
      [
        "re",
        "ady"
      ],
      [
        "Ġn",
        "er"
      ],
      [
        "Ġfrustr",
        "ated"
      ],
      [
        "Ġthank",
        "ful"
      ],
      [
        "Ġpower",
        "ful"
      ],
      [
        "Ġcl",
        "ass"
      ],
      [
        "Ġsleep",
        "y"
      ],
      [
        "Ġsandw",
        "ich"
      ],
      [
        "Ġsp",
        "icy"
      ],
      [
        "Ġfr",
        "ed"
      ],
      [
        "j",
        "ane"
      ],
      [
        "k",
        "in"
      ],
      [
        "Ġf",
        "ig"
      ],
      [
        "wor",
        "k"
      ],
      [
        "Ġmess",
        "y"
      ],
      [
        "Ġd",
        "rew"
      ],
      [
        "Ġg",
        "un"
      ],
      [
        "Ġm",
        "id"
      ],
      [
        "Ġpas",
        "sed"
      ],
      [
        "Ġfing",
        "er"
      ],
      [
        "Ġner",
        "vous"
      ],
      [
        "'",
        "d"
      ],
      [
        "Ġclo",
        "set"
      ],
      [
        "Ġgr",
        "umpy"
      ],
      [
        "Ġfan",
        "cy"
      ],
      [
        "Ġspo",
        "il"
      ],
      [
        "Ġt",
        "ick"
      ],
      [
        "Ġfe",
        "ar"
      ],
      [
        "Ġre",
        "g"
      ],
      [
        "p",
        "ill"
      ],
      [
        "Ġlo",
        "ck"
      ],
      [
        "Ġcir",
        "c"
      ],
      [
        "Ġm",
        "ot"
      ],
      [
        "Ġbr",
        "idge"
      ],
      [
        "Ġg",
        "ate"
      ],
      [
        "Ġte",
        "ars"
      ],
      [
        "Ġdr",
        "op"
      ],
      [
        "Ġfe",
        "ed"
      ],
      [
        "Ġcat",
        "er"
      ],
      [
        "Ġk",
        "issed"
      ],
      [
        "Ġcater",
        "pill"
      ],
      [
        "c",
        "ap"
      ],
      [
        "Ġso",
        "ld"
      ],
      [
        "os",
        "aur"
      ],
      [
        "s",
        "or"
      ],
      [
        "Ġha",
        "ng"
      ],
      [
        "Ġan",
        "n"
      ],
      [
        "Ġexc",
        "ite"
      ],
      [
        "Ġv",
        "an"
      ],
      [
        "Ġgather",
        "ed"
      ],
      [
        "ot",
        "e"
      ],
      [
        "sor",
        "ry"
      ],
      [
        "Ġdin",
        "osaur"
      ],
      [
        "Ġes",
        "cap"
      ],
      [
        "Ġfl",
        "ag"
      ],
      [
        "Ġyour",
        "self"
      ],
      [
        "Ġle",
        "g"
      ],
      [
        "iss",
        "ors"
      ],
      [
        "a",
        "f"
      ],
      [
        "Ġansw",
        "ered"
      ],
      [
        "s",
        "el"
      ],
      [
        "in",
        "a"
      ],
      [
        "Ġsc",
        "issors"
      ],
      [
        "Ġof",
        "ten"
      ],
      [
        "Ġc",
        "ries"
      ],
      [
        "Ġwor",
        "king"
      ],
      [
        "itt",
        "er"
      ],
      [
        "Ġu",
        "g"
      ],
      [
        "Ġche",
        "st"
      ],
      [
        "Ġtw",
        "irl"
      ],
      [
        "Ġbru",
        "sh"
      ],
      [
        "sel",
        "ves"
      ],
      [
        "p",
        "ack"
      ],
      [
        "Ġho",
        "pping"
      ],
      [
        "Ġsc",
        "r"
      ],
      [
        "Ġde",
        "er"
      ],
      [
        "g",
        "y"
      ],
      [
        "Ġbubble",
        "s"
      ],
      [
        "Ġug",
        "ly"
      ],
      [
        "Ġs",
        "ug"
      ],
      [
        "Ġre",
        "x"
      ],
      [
        "ill",
        "ed"
      ],
      [
        "Ġca",
        "nd"
      ],
      [
        "m",
        "b"
      ],
      [
        "Ġf",
        "il"
      ],
      [
        "s",
        "ist"
      ],
      [
        "Ġb",
        "urn"
      ],
      [
        "Ġcaterpill",
        "ar"
      ],
      [
        "ens",
        "ive"
      ],
      [
        "Ġexcite",
        "ment"
      ],
      [
        "u",
        "ce"
      ],
      [
        "Ġmid",
        "dle"
      ],
      [
        "Ġexp",
        "ensive"
      ],
      [
        "Ġsa",
        "ved"
      ],
      [
        "Ġl",
        "it"
      ],
      [
        "er",
        "a"
      ],
      [
        "Ġsug",
        "ar"
      ],
      [
        "Ġta",
        "ken"
      ],
      [
        "Ġon",
        "es"
      ],
      [
        "Ġ",
        "ed"
      ],
      [
        "Ġli",
        "z"
      ],
      [
        "Ġwa",
        "gged"
      ],
      [
        "Ġcr",
        "own"
      ],
      [
        "Ġple",
        "ased"
      ],
      [
        "Ġon",
        "ce"
      ],
      [
        "a",
        "x"
      ],
      [
        "Ġsp",
        "end"
      ],
      [
        "oo",
        "f"
      ],
      [
        "Ġb",
        "oring"
      ],
      [
        "Ġpick",
        "s"
      ],
      [
        "wh",
        "o"
      ],
      [
        "Ġas",
        "king"
      ],
      [
        "Ġv",
        "ase"
      ],
      [
        "Ġt",
        "ent"
      ],
      [
        "Ġbo",
        "ss"
      ],
      [
        "jim",
        "my"
      ],
      [
        "o",
        "se"
      ],
      [
        "Ġt",
        "ie"
      ],
      [
        "at",
        "es"
      ],
      [
        "Ġvegetable",
        "s"
      ],
      [
        "Ġdan",
        "cing"
      ],
      [
        "Ġqu",
        "een"
      ],
      [
        "l",
        "ight"
      ],
      [
        "Ġgigg",
        "led"
      ],
      [
        "eci",
        "ally"
      ],
      [
        "p",
        "ecially"
      ],
      [
        "Ġget",
        "s"
      ],
      [
        "the",
        "ir"
      ],
      [
        "Ġmist",
        "ake"
      ],
      [
        "Ġca",
        "ge"
      ],
      [
        "Ġes",
        "pecially"
      ],
      [
        "Ġcl",
        "own"
      ],
      [
        "et",
        "s"
      ],
      [
        "Ġn",
        "umber"
      ],
      [
        "su",
        "al"
      ],
      [
        "Ġfl",
        "ut"
      ],
      [
        "Ġst",
        "uff"
      ],
      [
        "Ġcomfort",
        "able"
      ],
      [
        "Ġle",
        "o"
      ],
      [
        "Ġpack",
        "ed"
      ],
      [
        "o",
        "b"
      ],
      [
        "Ġjohn",
        "ny"
      ],
      [
        "Ġl",
        "ying"
      ],
      [
        "Ġwa",
        "nder"
      ],
      [
        "Ġp",
        "ress"
      ],
      [
        "Ġkn",
        "ight"
      ],
      [
        "Ġmed",
        "ic"
      ],
      [
        "Ġclean",
        "ed"
      ],
      [
        "Ġmo",
        "ving"
      ],
      [
        "Ġs",
        "ight"
      ],
      [
        "r",
        "or"
      ],
      [
        "in",
        "ess"
      ],
      [
        "Ġfruit",
        "s"
      ],
      [
        "Ġsweet",
        "ie"
      ],
      [
        "Ġdr",
        "um"
      ],
      [
        "Ġfa",
        "ke"
      ],
      [
        "g",
        "gs"
      ],
      [
        "Ġpu",
        "s"
      ],
      [
        "Ġd",
        "est"
      ],
      [
        "Ġe",
        "ggs"
      ],
      [
        "o",
        "nd"
      ],
      [
        "Ġgl",
        "ue"
      ],
      [
        "m",
        "or"
      ],
      [
        "Ġmedic",
        "ine"
      ],
      [
        "Ġwalk",
        "s"
      ],
      [
        "Ġdist",
        "ance"
      ],
      [
        "Ġro",
        "ar"
      ],
      [
        "Ġdraw",
        "ing"
      ],
      [
        "Ġb",
        "one"
      ],
      [
        "Ġlem",
        "on"
      ],
      [
        "Ġsplas",
        "hed"
      ],
      [
        "Ġtw",
        "ist"
      ],
      [
        "Ġle",
        "ad"
      ],
      [
        "Ġmo",
        "v"
      ],
      [
        "Ġba",
        "ke"
      ],
      [
        "Ġpr",
        "ay"
      ],
      [
        "Ġcl",
        "ap"
      ],
      [
        "Ġe",
        "lder"
      ],
      [
        "Ġwe",
        "ek"
      ],
      [
        "y",
        "al"
      ],
      [
        "Ġdisapp",
        "eared"
      ],
      [
        "Ġm",
        "ill"
      ],
      [
        "Ġch",
        "ange"
      ],
      [
        "Ġsmell",
        "y"
      ],
      [
        "Ġdog",
        "s"
      ],
      [
        "Ġy",
        "og"
      ],
      [
        "Ġbath",
        "room"
      ],
      [
        "Ġfo",
        "ld"
      ],
      [
        "g",
        "ra"
      ],
      [
        "Ġfeather",
        "s"
      ],
      [
        "Ġb",
        "ill"
      ],
      [
        "Ġbec",
        "ome"
      ],
      [
        "Ġmom",
        "s"
      ],
      [
        "Ġbat",
        "ter"
      ],
      [
        "oo",
        "p"
      ],
      [
        "Ġr",
        "ich"
      ],
      [
        "Ġf",
        "is"
      ],
      [
        "Ġlo",
        "se"
      ],
      [
        "Ġcall",
        "ing"
      ],
      [
        "Ġli",
        "cked"
      ],
      [
        "Ġla",
        "zy"
      ],
      [
        "Ġm",
        "ic"
      ],
      [
        "Ġa",
        "dd"
      ],
      [
        "Ġr",
        "id"
      ],
      [
        "Ġf",
        "ather"
      ],
      [
        "Ġplay",
        "ground"
      ],
      [
        "Ġc",
        "ri"
      ],
      [
        "Ġmat",
        "ch"
      ],
      [
        "Ġelder",
        "ly"
      ],
      [
        "Ġwe",
        "ak"
      ],
      [
        "ot",
        "s"
      ],
      [
        "Ġinc",
        "red"
      ],
      [
        "s",
        "ally"
      ],
      [
        "Ġh",
        "orn"
      ],
      [
        "Ġex",
        "am"
      ],
      [
        "Ġbo",
        "dy"
      ],
      [
        "?\"",
        "."
      ],
      [
        "Ġyour",
        "s"
      ],
      [
        "Ġquest",
        "ions"
      ],
      [
        "Ġwr",
        "ote"
      ],
      [
        "b",
        "illy"
      ],
      [
        "Ġmir",
        "ror"
      ],
      [
        "Ġno",
        "isy"
      ],
      [
        "Ġlo",
        "yal"
      ],
      [
        "Ġno",
        "d"
      ],
      [
        "ugg",
        "est"
      ],
      [
        "Ġch",
        "ir"
      ],
      [
        "Ġs",
        "uggest"
      ],
      [
        "Ġwhe",
        "el"
      ],
      [
        "Ġcle",
        "ar"
      ],
      [
        "Ġsk",
        "ipped"
      ],
      [
        "l",
        "and"
      ],
      [
        "ee",
        "z"
      ],
      [
        "w",
        "ell"
      ],
      [
        "Ġche",
        "ck"
      ],
      [
        "Ġl",
        "amp"
      ],
      [
        "Ġd",
        "ish"
      ],
      [
        "ke",
        "ep"
      ],
      [
        "Ġex",
        "t"
      ],
      [
        "h",
        "ip"
      ],
      [
        "Ġgl",
        "ow"
      ],
      [
        "Ġta",
        "pe"
      ],
      [
        "Ġfam",
        "ous"
      ],
      [
        "Ġd",
        "ig"
      ],
      [
        "Ġt",
        "iger"
      ],
      [
        "am",
        "y"
      ],
      [
        "Ġr",
        "are"
      ],
      [
        "Ġst",
        "ones"
      ],
      [
        "Ġj",
        "am"
      ],
      [
        "Ġa",
        "unt"
      ],
      [
        "Ġru",
        "ined"
      ],
      [
        "in",
        "ation"
      ],
      [
        "Ġor",
        "d"
      ],
      [
        "Ġso",
        "ap"
      ],
      [
        "Ġi",
        "nd"
      ],
      [
        "iz",
        "zy"
      ],
      [
        "Ġse",
        "ll"
      ],
      [
        "Ġfig",
        "ure"
      ],
      [
        "Ġcont",
        "ent"
      ],
      [
        "Ġdr",
        "ank"
      ],
      [
        "Ġshow",
        "s"
      ],
      [
        "Ġrel",
        "ax"
      ],
      [
        "Ġincred",
        "ible"
      ],
      [
        "Ġsw",
        "an"
      ],
      [
        "Ġco",
        "vered"
      ],
      [
        "Ġju",
        "icy"
      ],
      [
        "Ġsho",
        "ot"
      ],
      [
        "Ġte",
        "am"
      ],
[...]
